{
  "version": "1.0",
  "truncation": null,
  "padding": null,
  "added_tokens": [
    {
      "id": 0,
      "content": "<s>",
      "single_word": false,
      "lstrip": false,
      "rstrip": false,
      "normalized": false,
      "special": true
    },
    {
      "id": 1,
      "content": "</s>",
      "single_word": false,
      "lstrip": false,
      "rstrip": false,
      "normalized": false,
      "special": true
    },
    {
      "id": 2,
      "content": "<usr>",
      "single_word": false,
      "lstrip": false,
      "rstrip": false,
      "normalized": false,
      "special": true
    },
    {
      "id": 3,
      "content": "<pad>",
      "single_word": false,
      "lstrip": false,
      "rstrip": false,
      "normalized": false,
      "special": true
    },
    {
      "id": 4,
      "content": "<sys>",
      "single_word": false,
      "lstrip": false,
      "rstrip": false,
      "normalized": false,
      "special": true
    },
    {
      "id": 5,
      "content": "<unk>",
      "single_word": false,
      "lstrip": false,
      "rstrip": false,
      "normalized": false,
      "special": true
    },
    {
      "id": 6,
      "content": "<mask>",
      "single_word": false,
      "lstrip": false,
      "rstrip": false,
      "normalized": false,
      "special": true
    }
  ],
  "normalizer": {
    "type": "Sequence",
    "normalizers": [
      {
        "type": "NFKC"
      },
      {
        "type": "BertNormalizer",
        "clean_text": false,
        "handle_chinese_chars": false,
        "strip_accents": false,
        "lowercase": false
      }
    ]
  },
  "pre_tokenizer": {
    "type": "Metaspace",
    "replacement": "▁",
    "prepend_scheme": "always",
    "split": true
  },
  "post_processor": {
    "type": "RobertaProcessing",
    "sep": [
      "</s>",
      1
    ],
    "cls": [
      "<s>",
      0
    ],
    "trim_offsets": true,
    "add_prefix_space": false
  },
  "decoder": {
    "type": "Metaspace",
    "replacement": "▁",
    "prepend_scheme": "always",
    "split": true
  },
  "model": {
    "type": "BPE",
    "dropout": null,
    "unk_token": "<unk>",
    "continuing_subword_prefix": null,
    "end_of_word_suffix": null,
    "fuse_unk": false,
    "byte_fallback": false,
    "ignore_merges": false,
    "vocab": {
      "<s>": 0,
      "</s>": 1,
      "<usr>": 2,
      "<pad>": 3,
      "<sys>": 4,
      "<unk>": 5,
      "<mask>": 6,
      "\t": 7,
      "\n": 8,
      "\u001a": 9,
      "!": 10,
      "\"": 11,
      "#": 12,
      "$": 13,
      "%": 14,
      "&": 15,
      "'": 16,
      "*": 17,
      "+": 18,
      ",": 19,
      "-": 20,
      ".": 21,
      "/": 22,
      "0": 23,
      "1": 24,
      "2": 25,
      "3": 26,
      "4": 27,
      "5": 28,
      "6": 29,
      "7": 30,
      "8": 31,
      "9": 32,
      ":": 33,
      ";": 34,
      "<": 35,
      ">": 36,
      "?": 37,
      "@": 38,
      "A": 39,
      "B": 40,
      "C": 41,
      "D": 42,
      "E": 43,
      "F": 44,
      "G": 45,
      "H": 46,
      "I": 47,
      "J": 48,
      "K": 49,
      "L": 50,
      "M": 51,
      "N": 52,
      "O": 53,
      "P": 54,
      "Q": 55,
      "R": 56,
      "S": 57,
      "T": 58,
      "U": 59,
      "V": 60,
      "W": 61,
      "X": 62,
      "Y": 63,
      "Z": 64,
      "\\": 65,
      "^": 66,
      "_": 67,
      "`": 68,
      "a": 69,
      "b": 70,
      "c": 71,
      "d": 72,
      "e": 73,
      "f": 74,
      "g": 75,
      "h": 76,
      "i": 77,
      "j": 78,
      "k": 79,
      "l": 80,
      "m": 81,
      "n": 82,
      "o": 83,
      "p": 84,
      "q": 85,
      "r": 86,
      "s": 87,
      "t": 88,
      "u": 89,
      "v": 90,
      "w": 91,
      "x": 92,
      "y": 93,
      "z": 94,
      "|": 95,
      "~": 96,
      "ᄀ": 97,
      "ᄁ": 98,
      "ᄂ": 99,
      "ᄃ": 100,
      "ᄄ": 101,
      "ᄅ": 102,
      "ᄆ": 103,
      "ᄇ": 104,
      "ᄈ": 105,
      "ᄉ": 106,
      "ᄊ": 107,
      "ᄋ": 108,
      "ᄌ": 109,
      "ᄍ": 110,
      "ᄎ": 111,
      "ᄏ": 112,
      "ᄐ": 113,
      "ᄑ": 114,
      "ᄒ": 115,
      "ᄔ": 116,
      "ᄕ": 117,
      "ᄚ": 118,
      "ᄝ": 119,
      "ᄞ": 120,
      "ᄠ": 121,
      "ᄡ": 122,
      "ᄢ": 123,
      "ᄣ": 124,
      "ᄩ": 125,
      "ᄫ": 126,
      "ᄬ": 127,
      "ᄮ": 128,
      "ᄴ": 129,
      "ᄼ": 130,
      "ᄽ": 131,
      "ᄾ": 132,
      "ᄿ": 133,
      "ᅀ": 134,
      "ᅅ": 135,
      "ᅌ": 136,
      "ᅎ": 137,
      "ᅏ": 138,
      "ᅐ": 139,
      "ᅑ": 140,
      "ᅔ": 141,
      "ᅕ": 142,
      "ᅗ": 143,
      "ᅘ": 144,
      "ᅙ": 145,
      "ᅠ": 146,
      "ᅡ": 147,
      "ᅢ": 148,
      "ᅣ": 149,
      "ᅤ": 150,
      "ᅥ": 151,
      "ᅦ": 152,
      "ᅧ": 153,
      "ᅨ": 154,
      "ᅩ": 155,
      "ᅪ": 156,
      "ᅫ": 157,
      "ᅬ": 158,
      "ᅭ": 159,
      "ᅮ": 160,
      "ᅯ": 161,
      "ᅰ": 162,
      "ᅱ": 163,
      "ᅲ": 164,
      "ᅳ": 165,
      "ᅴ": 166,
      "ᅵ": 167,
      "ᆋ": 168,
      "ᆑ": 169,
      "ᆒ": 170,
      "ᆖ": 171,
      "ᆚ": 172,
      "ᆣ": 173,
      "ᆨ": 174,
      "ᆩ": 175,
      "ᆪ": 176,
      "ᆫ": 177,
      "ᆬ": 178,
      "ᆭ": 179,
      "ᆮ": 180,
      "ᆯ": 181,
      "ᆰ": 182,
      "ᆱ": 183,
      "ᆲ": 184,
      "ᆳ": 185,
      "ᆴ": 186,
      "ᆵ": 187,
      "ᆶ": 188,
      "ᆷ": 189,
      "ᆸ": 190,
      "ᆹ": 191,
      "ᆺ": 192,
      "ᆻ": 193,
      "ᆼ": 194,
      "ᆽ": 195,
      "ᆾ": 196,
      "ᆿ": 197,
      "ᇌ": 198,
      "ᇎ": 199,
      "ᇗ": 200,
      "ᇙ": 201,
      "ᇝ": 202,
      "ᇧ": 203,
      "“": 204,
      "▁": 205,
      "가": 206,
      "각": 207,
      "갂": 208,
      "갃": 209,
      "간": 210,
      "갅": 211,
      "갆": 212,
      "갇": 213,
      "갈": 214,
      "갉": 215,
      "갊": 216,
      "갋": 217,
      "갌": 218,
      "갏": 219,
      "감": 220,
      "갑": 221,
      "값": 222,
      "갓": 223,
      "갔": 224,
      "강": 225,
      "갖": 226,
      "갗": 227,
      "같": 228,
      "갚": 229,
      "갛": 230,
      "개": 231,
      "객": 232,
      "갠": 233,
      "갣": 234,
      "갤": 235,
      "갬": 236,
      "갭": 237,
      "갯": 238,
      "갰": 239,
      "갱": 240,
      "갲": 241,
      "갶": 242,
      "갸": 243,
      "갹": 244,
      "갻": 245,
      "갼": 246,
      "갽": 247,
      "갿": 248,
      "걀": 249,
      "걋": 250,
      "걍": 251,
      "걔": 252,
      "걖": 253,
      "걘": 254,
      "걜": 255,
      "거": 256,
      "걱": 257,
      "걲": 258,
      "건": 259,
      "걷": 260,
      "걸": 261,
      "걹": 262,
      "걺": 263,
      "검": 264,
      "겁": 265,
      "겂": 266,
      "것": 267,
      "겄": 268,
      "겅": 269,
      "겆": 270,
      "겉": 271,
      "겊": 272,
      "겋": 273,
      "게": 274,
      "겍": 275,
      "겐": 276,
      "겓": 277,
      "겔": 278,
      "겙": 279,
      "겚": 280,
      "겜": 281,
      "겝": 282,
      "겞": 283,
      "겟": 284,
      "겠": 285,
      "겡": 286,
      "겢": 287,
      "겣": 288,
      "겤": 289,
      "겧": 290,
      "겨": 291,
      "격": 292,
      "겪": 293,
      "겫": 294,
      "견": 295,
      "겭": 296,
      "겮": 297,
      "겯": 298,
      "결": 299,
      "겱": 300,
      "겲": 301,
      "겳": 302,
      "겴": 303,
      "겵": 304,
      "겷": 305,
      "겸": 306,
      "겹": 307,
      "겻": 308,
      "겼": 309,
      "경": 310,
      "겾": 311,
      "겿": 312,
      "곀": 313,
      "곁": 314,
      "곂": 315,
      "곃": 316,
      "계": 317,
      "곈": 318,
      "곌": 319,
      "곒": 320,
      "곔": 321,
      "곕": 322,
      "곗": 323,
      "곘": 324,
      "곙": 325,
      "곛": 326,
      "고": 327,
      "곡": 328,
      "곤": 329,
      "곧": 330,
      "골": 331,
      "곩": 332,
      "곪": 333,
      "곫": 334,
      "곬": 335,
      "곯": 336,
      "곰": 337,
      "곱": 338,
      "곳": 339,
      "공": 340,
      "곶": 341,
      "곷": 342,
      "곹": 343,
      "곺": 344,
      "과": 345,
      "곽": 346,
      "곾": 347,
      "관": 348,
      "괂": 349,
      "괃": 350,
      "괄": 351,
      "괆": 352,
      "괊": 353,
      "괌": 354,
      "괍": 355,
      "괏": 356,
      "괐": 357,
      "광": 358,
      "괒": 359,
      "괔": 360,
      "괕": 361,
      "괗": 362,
      "괘": 363,
      "괙": 364,
      "괚": 365,
      "괜": 366,
      "괞": 367,
      "괠": 368,
      "괩": 369,
      "괫": 370,
      "괬": 371,
      "괭": 372,
      "괴": 373,
      "괵": 374,
      "괶": 375,
      "괸": 376,
      "괼": 377,
      "굀": 378,
      "굄": 379,
      "굅": 380,
      "굇": 381,
      "굉": 382,
      "굊": 383,
      "굏": 384,
      "교": 385,
      "굑": 386,
      "굔": 387,
      "굘": 388,
      "굚": 389,
      "굛": 390,
      "굡": 391,
      "굣": 392,
      "굥": 393,
      "굦": 394,
      "구": 395,
      "국": 396,
      "굮": 397,
      "군": 398,
      "굳": 399,
      "굴": 400,
      "굵": 401,
      "굶": 402,
      "굷": 403,
      "굻": 404,
      "굼": 405,
      "굽": 406,
      "굿": 407,
      "궁": 408,
      "궂": 409,
      "궃": 410,
      "궅": 411,
      "궈": 412,
      "궉": 413,
      "궊": 414,
      "권": 415,
      "궎": 416,
      "궐": 417,
      "궙": 418,
      "궛": 419,
      "궜": 420,
      "궝": 421,
      "궞": 422,
      "궡": 423,
      "궢": 424,
      "궤": 425,
      "궥": 426,
      "궧": 427,
      "궨": 428,
      "궫": 429,
      "궬": 430,
      "궮": 431,
      "궯": 432,
      "궱": 433,
      "궵": 434,
      "궷": 435,
      "궼": 436,
      "귀": 437,
      "귁": 438,
      "귄": 439,
      "귈": 440,
      "귐": 441,
      "귑": 442,
      "귓": 443,
      "귕": 444,
      "규": 445,
      "귝": 446,
      "균": 447,
      "귡": 448,
      "귤": 449,
      "귪": 450,
      "귬": 451,
      "귭": 452,
      "귯": 453,
      "그": 454,
      "극": 455,
      "귺": 456,
      "귻": 457,
      "근": 458,
      "귽": 459,
      "귾": 460,
      "귿": 461,
      "글": 462,
      "긁": 463,
      "긂": 464,
      "긇": 465,
      "금": 466,
      "급": 467,
      "긊": 468,
      "긋": 469,
      "긌": 470,
      "긍": 471,
      "긎": 472,
      "긏": 473,
      "긐": 474,
      "긑": 475,
      "긒": 476,
      "긔": 477,
      "긘": 478,
      "긛": 479,
      "긜": 480,
      "긟": 481,
      "긠": 482,
      "긣": 483,
      "긤": 484,
      "긥": 485,
      "긧": 486,
      "긩": 487,
      "긬": 488,
      "기": 489,
      "긱": 490,
      "긲": 491,
      "긴": 492,
      "긷": 493,
      "길": 494,
      "긹": 495,
      "긺": 496,
      "긼": 497,
      "긾": 498,
      "긿": 499,
      "김": 500,
      "깁": 501,
      "깂": 502,
      "깃": 503,
      "깄": 504,
      "깅": 505,
      "깆": 506,
      "깇": 507,
      "깉": 508,
      "깊": 509,
      "깋": 510,
      "까": 511,
      "깍": 512,
      "깎": 513,
      "깐": 514,
      "깔": 515,
      "깖": 516,
      "깜": 517,
      "깝": 518,
      "깟": 519,
      "깠": 520,
      "깡": 521,
      "깢": 522,
      "깣": 523,
      "깥": 524,
      "깧": 525,
      "깨": 526,
      "깩": 527,
      "깬": 528,
      "깯": 529,
      "깰": 530,
      "깳": 531,
      "깵": 532,
      "깶": 533,
      "깸": 534,
      "깹": 535,
      "깺": 536,
      "깻": 537,
      "깼": 538,
      "깽": 539,
      "깿": 540,
      "꺄": 541,
      "꺅": 542,
      "꺆": 543,
      "꺉": 544,
      "꺊": 545,
      "꺋": 546,
      "꺌": 547,
      "꺍": 548,
      "꺎": 549,
      "꺏": 550,
      "꺑": 551,
      "꺒": 552,
      "꺓": 553,
      "꺔": 554,
      "꺕": 555,
      "꺖": 556,
      "꺗": 557,
      "꺘": 558,
      "꺙": 559,
      "꺚": 560,
      "꺛": 561,
      "꺜": 562,
      "꺝": 563,
      "꺞": 564,
      "꺟": 565,
      "꺠": 566,
      "꺡": 567,
      "꺢": 568,
      "꺥": 569,
      "꺦": 570,
      "꺩": 571,
      "꺭": 572,
      "꺲": 573,
      "꺳": 574,
      "꺸": 575,
      "꺼": 576,
      "꺽": 577,
      "꺾": 578,
      "껀": 579,
      "껃": 580,
      "껄": 581,
      "껊": 582,
      "껌": 583,
      "껍": 584,
      "껏": 585,
      "껐": 586,
      "껑": 587,
      "껕": 588,
      "께": 589,
      "껙": 590,
      "껜": 591,
      "껞": 592,
      "껠": 593,
      "껨": 594,
      "껩": 595,
      "껫": 596,
      "껬": 597,
      "껭": 598,
      "껴": 599,
      "껵": 600,
      "껶": 601,
      "껸": 602,
      "껼": 603,
      "꼇": 604,
      "꼈": 605,
      "꼉": 606,
      "꼍": 607,
      "꼐": 608,
      "꼤": 609,
      "꼬": 610,
      "꼭": 611,
      "꼰": 612,
      "꼲": 613,
      "꼳": 614,
      "꼴": 615,
      "꼼": 616,
      "꼽": 617,
      "꼿": 618,
      "꽁": 619,
      "꽂": 620,
      "꽃": 621,
      "꽅": 622,
      "꽈": 623,
      "꽉": 624,
      "꽊": 625,
      "꽌": 626,
      "꽐": 627,
      "꽛": 628,
      "꽜": 629,
      "꽝": 630,
      "꽤": 631,
      "꽥": 632,
      "꽨": 633,
      "꽷": 634,
      "꽹": 635,
      "꾀": 636,
      "꾄": 637,
      "꾈": 638,
      "꾐": 639,
      "꾑": 640,
      "꾔": 641,
      "꾕": 642,
      "꾜": 643,
      "꾩": 644,
      "꾳": 645,
      "꾸": 646,
      "꾹": 647,
      "꾼": 648,
      "꾾": 649,
      "꾿": 650,
      "꿀": 651,
      "꿇": 652,
      "꿈": 653,
      "꿉": 654,
      "꿋": 655,
      "꿌": 656,
      "꿍": 657,
      "꿎": 658,
      "꿏": 659,
      "꿑": 660,
      "꿔": 661,
      "꿕": 662,
      "꿘": 663,
      "꿜": 664,
      "꿧": 665,
      "꿨": 666,
      "꿩": 667,
      "꿮": 668,
      "꿰": 669,
      "꿱": 670,
      "꿴": 671,
      "꿸": 672,
      "뀀": 673,
      "뀁": 674,
      "뀄": 675,
      "뀅": 676,
      "뀉": 677,
      "뀌": 678,
      "뀐": 679,
      "뀔": 680,
      "뀜": 681,
      "뀝": 682,
      "뀟": 683,
      "뀠": 684,
      "뀡": 685,
      "뀨": 686,
      "뀰": 687,
      "뀸": 688,
      "뀼": 689,
      "끁": 690,
      "끄": 691,
      "끅": 692,
      "끈": 693,
      "끊": 694,
      "끋": 695,
      "끌": 696,
      "끍": 697,
      "끎": 698,
      "끓": 699,
      "끔": 700,
      "끕": 701,
      "끗": 702,
      "끙": 703,
      "끛": 704,
      "끝": 705,
      "끠": 706,
      "끼": 707,
      "끽": 708,
      "끾": 709,
      "낀": 710,
      "낃": 711,
      "낄": 712,
      "낋": 713,
      "낌": 714,
      "낍": 715,
      "낏": 716,
      "낐": 717,
      "낑": 718,
      "낖": 719,
      "나": 720,
      "낙": 721,
      "낚": 722,
      "낛": 723,
      "난": 724,
      "낟": 725,
      "날": 726,
      "낡": 727,
      "낢": 728,
      "낣": 729,
      "낤": 730,
      "남": 731,
      "납": 732,
      "낫": 733,
      "났": 734,
      "낭": 735,
      "낮": 736,
      "낯": 737,
      "낰": 738,
      "낱": 739,
      "낲": 740,
      "낳": 741,
      "내": 742,
      "낵": 743,
      "낸": 744,
      "낻": 745,
      "낼": 746,
      "낽": 747,
      "냄": 748,
      "냅": 749,
      "냇": 750,
      "냈": 751,
      "냉": 752,
      "냊": 753,
      "냎": 754,
      "냏": 755,
      "냐": 756,
      "냑": 757,
      "냔": 758,
      "냕": 759,
      "냘": 760,
      "냠": 761,
      "냡": 762,
      "냣": 763,
      "냤": 764,
      "냥": 765,
      "냬": 766,
      "냿": 767,
      "넀": 768,
      "넁": 769,
      "너": 770,
      "넉": 771,
      "넋": 772,
      "넌": 773,
      "넏": 774,
      "널": 775,
      "넑": 776,
      "넒": 777,
      "넓": 778,
      "넔": 779,
      "넖": 780,
      "넗": 781,
      "넘": 782,
      "넙": 783,
      "넚": 784,
      "넛": 785,
      "넜": 786,
      "넝": 787,
      "넞": 788,
      "넡": 789,
      "넢": 790,
      "넣": 791,
      "네": 792,
      "넥": 793,
      "넨": 794,
      "넫": 795,
      "넬": 796,
      "넴": 797,
      "넵": 798,
      "넷": 799,
      "넸": 800,
      "넹": 801,
      "넺": 802,
      "넻": 803,
      "넼": 804,
      "넽": 805,
      "녀": 806,
      "녁": 807,
      "녂": 808,
      "년": 809,
      "녇": 810,
      "녈": 811,
      "녋": 812,
      "념": 813,
      "녑": 814,
      "녓": 815,
      "녔": 816,
      "녕": 817,
      "녘": 818,
      "녙": 819,
      "녜": 820,
      "녝": 821,
      "녞": 822,
      "녟": 823,
      "녠": 824,
      "녣": 825,
      "녤": 826,
      "녬": 827,
      "녯": 828,
      "노": 829,
      "녹": 830,
      "녺": 831,
      "녻": 832,
      "논": 833,
      "녾": 834,
      "녿": 835,
      "놀": 836,
      "놁": 837,
      "놂": 838,
      "놃": 839,
      "놈": 840,
      "놉": 841,
      "놋": 842,
      "농": 843,
      "놏": 844,
      "높": 845,
      "놓": 846,
      "놔": 847,
      "놘": 848,
      "놜": 849,
      "놧": 850,
      "놨": 851,
      "놰": 852,
      "놻": 853,
      "뇁": 854,
      "뇄": 855,
      "뇆": 856,
      "뇊": 857,
      "뇋": 858,
      "뇌": 859,
      "뇍": 860,
      "뇐": 861,
      "뇔": 862,
      "뇗": 863,
      "뇜": 864,
      "뇝": 865,
      "뇟": 866,
      "뇡": 867,
      "뇦": 868,
      "뇨": 869,
      "뇩": 870,
      "뇬": 871,
      "뇰": 872,
      "뇸": 873,
      "뇹": 874,
      "뇻": 875,
      "뇽": 876,
      "눀": 877,
      "눂": 878,
      "누": 879,
      "눅": 880,
      "눈": 881,
      "눋": 882,
      "눌": 883,
      "눍": 884,
      "눔": 885,
      "눕": 886,
      "눗": 887,
      "눙": 888,
      "눚": 889,
      "눝": 890,
      "눞": 891,
      "눟": 892,
      "눠": 893,
      "눤": 894,
      "눨": 895,
      "눮": 896,
      "눴": 897,
      "눵": 898,
      "눼": 899,
      "뉘": 900,
      "뉙": 901,
      "뉜": 902,
      "뉟": 903,
      "뉠": 904,
      "뉨": 905,
      "뉩": 906,
      "뉫": 907,
      "뉭": 908,
      "뉴": 909,
      "뉵": 910,
      "뉸": 911,
      "뉻": 912,
      "뉼": 913,
      "늄": 914,
      "늅": 915,
      "늇": 916,
      "늉": 917,
      "늏": 918,
      "느": 919,
      "늑": 920,
      "늒": 921,
      "늓": 922,
      "는": 923,
      "늕": 924,
      "늖": 925,
      "늗": 926,
      "늘": 927,
      "늙": 928,
      "늚": 929,
      "늛": 930,
      "늜": 931,
      "늝": 932,
      "늟": 933,
      "늠": 934,
      "늡": 935,
      "늢": 936,
      "늣": 937,
      "늤": 938,
      "능": 939,
      "늦": 940,
      "늧": 941,
      "늩": 942,
      "늪": 943,
      "늫": 944,
      "늬": 945,
      "늮": 946,
      "늯": 947,
      "늰": 948,
      "늱": 949,
      "늲": 950,
      "늳": 951,
      "늴": 952,
      "늵": 953,
      "늶": 954,
      "늸": 955,
      "늹": 956,
      "늽": 957,
      "늿": 958,
      "닁": 959,
      "니": 960,
      "닉": 961,
      "닊": 962,
      "닌": 963,
      "닏": 964,
      "닐": 965,
      "닑": 966,
      "닒": 967,
      "님": 968,
      "닙": 969,
      "닛": 970,
      "닜": 971,
      "닝": 972,
      "닞": 973,
      "닟": 974,
      "닠": 975,
      "닡": 976,
      "닢": 977,
      "닣": 978,
      "다": 979,
      "닥": 980,
      "닦": 981,
      "닧": 982,
      "단": 983,
      "닫": 984,
      "달": 985,
      "닭": 986,
      "닮": 987,
      "닯": 988,
      "닲": 989,
      "닳": 990,
      "담": 991,
      "답": 992,
      "닷": 993,
      "닸": 994,
      "당": 995,
      "닺": 996,
      "닻": 997,
      "닽": 998,
      "닾": 999,
      "닿": 1000,
      "대": 1001,
      "댁": 1002,
      "댄": 1003,
      "댇": 1004,
      "댈": 1005,
      "댉": 1006,
      "댏": 1007,
      "댐": 1008,
      "댑": 1009,
      "댓": 1010,
      "댔": 1011,
      "댕": 1012,
      "댖": 1013,
      "댗": 1014,
      "댚": 1015,
      "댛": 1016,
      "댜": 1017,
      "댠": 1018,
      "댭": 1019,
      "댱": 1020,
      "댸": 1021,
      "댾": 1022,
      "댿": 1023,
      "덀": 1024,
      "덂": 1025,
      "덅": 1026,
      "덆": 1027,
      "덎": 1028,
      "덐": 1029,
      "덒": 1030,
      "더": 1031,
      "덕": 1032,
      "덖": 1033,
      "덗": 1034,
      "던": 1035,
      "덙": 1036,
      "덛": 1037,
      "덜": 1038,
      "덞": 1039,
      "덟": 1040,
      "덠": 1041,
      "덤": 1042,
      "덥": 1043,
      "덦": 1044,
      "덧": 1045,
      "덨": 1046,
      "덩": 1047,
      "덪": 1048,
      "덫": 1049,
      "덭": 1050,
      "덮": 1051,
      "덯": 1052,
      "데": 1053,
      "덱": 1054,
      "덴": 1055,
      "덷": 1056,
      "델": 1057,
      "뎀": 1058,
      "뎁": 1059,
      "뎃": 1060,
      "뎄": 1061,
      "뎅": 1062,
      "뎈": 1063,
      "뎊": 1064,
      "뎌": 1065,
      "뎍": 1066,
      "뎎": 1067,
      "뎏": 1068,
      "뎐": 1069,
      "뎑": 1070,
      "뎓": 1071,
      "뎔": 1072,
      "뎖": 1073,
      "뎘": 1074,
      "뎛": 1075,
      "뎜": 1076,
      "뎝": 1077,
      "뎟": 1078,
      "뎠": 1079,
      "뎡": 1080,
      "뎢": 1081,
      "뎤": 1082,
      "뎥": 1083,
      "뎧": 1084,
      "뎨": 1085,
      "뎩": 1086,
      "뎬": 1087,
      "뎮": 1088,
      "뎴": 1089,
      "뎻": 1090,
      "도": 1091,
      "독": 1092,
      "돆": 1093,
      "돈": 1094,
      "돋": 1095,
      "돌": 1096,
      "돍": 1097,
      "돎": 1098,
      "돐": 1099,
      "돔": 1100,
      "돕": 1101,
      "돗": 1102,
      "돘": 1103,
      "동": 1104,
      "돚": 1105,
      "돛": 1106,
      "돝": 1107,
      "돞": 1108,
      "돟": 1109,
      "돠": 1110,
      "돣": 1111,
      "돤": 1112,
      "돥": 1113,
      "돨": 1114,
      "돮": 1115,
      "돰": 1116,
      "돱": 1117,
      "돲": 1118,
      "돴": 1119,
      "돼": 1120,
      "돽": 1121,
      "돿": 1122,
      "됀": 1123,
      "됃": 1124,
      "됄": 1125,
      "됌": 1126,
      "됍": 1127,
      "됏": 1128,
      "됐": 1129,
      "됖": 1130,
      "되": 1131,
      "됙": 1132,
      "된": 1133,
      "됟": 1134,
      "될": 1135,
      "됢": 1136,
      "됧": 1137,
      "됨": 1138,
      "됩": 1139,
      "됫": 1140,
      "됬": 1141,
      "됭": 1142,
      "됮": 1143,
      "됴": 1144,
      "됸": 1145,
      "둅": 1146,
      "둇": 1147,
      "둉": 1148,
      "둏": 1149,
      "두": 1150,
      "둑": 1151,
      "둔": 1152,
      "둗": 1153,
      "둘": 1154,
      "둚": 1155,
      "둟": 1156,
      "둠": 1157,
      "둡": 1158,
      "둣": 1159,
      "둥": 1160,
      "둧": 1161,
      "둨": 1162,
      "둩": 1163,
      "둪": 1164,
      "둫": 1165,
      "둬": 1166,
      "둮": 1167,
      "둯": 1168,
      "둰": 1169,
      "둳": 1170,
      "둴": 1171,
      "둵": 1172,
      "둹": 1173,
      "둻": 1174,
      "둼": 1175,
      "둿": 1176,
      "뒀": 1177,
      "뒁": 1178,
      "뒃": 1179,
      "뒄": 1180,
      "뒇": 1181,
      "뒈": 1182,
      "뒋": 1183,
      "뒌": 1184,
      "뒍": 1185,
      "뒎": 1186,
      "뒔": 1187,
      "뒖": 1188,
      "뒚": 1189,
      "뒛": 1190,
      "뒝": 1191,
      "뒤": 1192,
      "뒥": 1193,
      "뒦": 1194,
      "뒨": 1195,
      "뒫": 1196,
      "뒬": 1197,
      "뒴": 1198,
      "뒵": 1199,
      "뒷": 1200,
      "뒸": 1201,
      "뒹": 1202,
      "뒺": 1203,
      "듀": 1204,
      "듁": 1205,
      "듃": 1206,
      "듄": 1207,
      "듈": 1208,
      "듏": 1209,
      "듐": 1210,
      "듑": 1211,
      "듓": 1212,
      "듕": 1213,
      "드": 1214,
      "득": 1215,
      "든": 1216,
      "듣": 1217,
      "들": 1218,
      "듥": 1219,
      "듦": 1220,
      "듧": 1221,
      "듫": 1222,
      "듬": 1223,
      "듭": 1224,
      "듯": 1225,
      "등": 1226,
      "듶": 1227,
      "듷": 1228,
      "듸": 1229,
      "듻": 1230,
      "듼": 1231,
      "듿": 1232,
      "딀": 1233,
      "딋": 1234,
      "딍": 1235,
      "딏": 1236,
      "디": 1237,
      "딕": 1238,
      "딘": 1239,
      "딛": 1240,
      "딜": 1241,
      "딝": 1242,
      "딞": 1243,
      "딢": 1244,
      "딤": 1245,
      "딥": 1246,
      "딧": 1247,
      "딨": 1248,
      "딩": 1249,
      "딪": 1250,
      "딫": 1251,
      "딬": 1252,
      "딮": 1253,
      "딯": 1254,
      "따": 1255,
      "딱": 1256,
      "딲": 1257,
      "딴": 1258,
      "딷": 1259,
      "딸": 1260,
      "딹": 1261,
      "딿": 1262,
      "땀": 1263,
      "땁": 1264,
      "땃": 1265,
      "땄": 1266,
      "땅": 1267,
      "땇": 1268,
      "땈": 1269,
      "땉": 1270,
      "땋": 1271,
      "때": 1272,
      "땍": 1273,
      "땎": 1274,
      "땐": 1275,
      "땓": 1276,
      "땔": 1277,
      "땕": 1278,
      "땙": 1279,
      "땚": 1280,
      "땜": 1281,
      "땝": 1282,
      "땞": 1283,
      "땟": 1284,
      "땠": 1285,
      "땡": 1286,
      "땣": 1287,
      "땤": 1288,
      "땥": 1289,
      "땧": 1290,
      "땨": 1291,
      "땵": 1292,
      "떄": 1293,
      "떈": 1294,
      "떋": 1295,
      "떏": 1296,
      "떓": 1297,
      "떙": 1298,
      "떛": 1299,
      "떟": 1300,
      "떠": 1301,
      "떡": 1302,
      "떢": 1303,
      "떤": 1304,
      "떧": 1305,
      "떨": 1306,
      "떪": 1307,
      "떫": 1308,
      "떬": 1309,
      "떮": 1310,
      "떰": 1311,
      "떱": 1312,
      "떳": 1313,
      "떴": 1314,
      "떵": 1315,
      "떻": 1316,
      "떼": 1317,
      "떽": 1318,
      "뗀": 1319,
      "뗄": 1320,
      "뗌": 1321,
      "뗍": 1322,
      "뗏": 1323,
      "뗐": 1324,
      "뗑": 1325,
      "뗘": 1326,
      "뗜": 1327,
      "뗬": 1328,
      "뗳": 1329,
      "뗴": 1330,
      "뗸": 1331,
      "똇": 1332,
      "똉": 1333,
      "또": 1334,
      "똑": 1335,
      "똔": 1336,
      "똘": 1337,
      "똞": 1338,
      "똟": 1339,
      "똠": 1340,
      "똡": 1341,
      "똢": 1342,
      "똣": 1343,
      "똥": 1344,
      "똧": 1345,
      "똫": 1346,
      "똬": 1347,
      "똭": 1348,
      "똰": 1349,
      "똲": 1350,
      "똴": 1351,
      "똻": 1352,
      "똿": 1353,
      "뙇": 1354,
      "뙈": 1355,
      "뙉": 1356,
      "뙑": 1357,
      "뙜": 1358,
      "뙤": 1359,
      "뙨": 1360,
      "뙬": 1361,
      "뙹": 1362,
      "뚜": 1363,
      "뚝": 1364,
      "뚠": 1365,
      "뚡": 1366,
      "뚢": 1367,
      "뚣": 1368,
      "뚤": 1369,
      "뚧": 1370,
      "뚪": 1371,
      "뚫": 1372,
      "뚬": 1373,
      "뚭": 1374,
      "뚯": 1375,
      "뚱": 1376,
      "뚷": 1377,
      "뚸": 1378,
      "뚹": 1379,
      "뚺": 1380,
      "뛃": 1381,
      "뛔": 1382,
      "뛞": 1383,
      "뛟": 1384,
      "뛦": 1385,
      "뛬": 1386,
      "뛰": 1387,
      "뛱": 1388,
      "뛳": 1389,
      "뛴": 1390,
      "뛵": 1391,
      "뛸": 1392,
      "뜀": 1393,
      "뜁": 1394,
      "뜅": 1395,
      "뜌": 1396,
      "뜜": 1397,
      "뜞": 1398,
      "뜟": 1399,
      "뜦": 1400,
      "뜨": 1401,
      "뜩": 1402,
      "뜬": 1403,
      "뜯": 1404,
      "뜰": 1405,
      "뜳": 1406,
      "뜵": 1407,
      "뜷": 1408,
      "뜸": 1409,
      "뜹": 1410,
      "뜻": 1411,
      "뜼": 1412,
      "뜽": 1413,
      "뜾": 1414,
      "띁": 1415,
      "띃": 1416,
      "띄": 1417,
      "띅": 1418,
      "띇": 1419,
      "띈": 1420,
      "띉": 1421,
      "띌": 1422,
      "띔": 1423,
      "띕": 1424,
      "띙": 1425,
      "띠": 1426,
      "띡": 1427,
      "띢": 1428,
      "띤": 1429,
      "띧": 1430,
      "띨": 1431,
      "띮": 1432,
      "띰": 1433,
      "띱": 1434,
      "띳": 1435,
      "띴": 1436,
      "띵": 1437,
      "라": 1438,
      "락": 1439,
      "란": 1440,
      "랁": 1441,
      "랂": 1442,
      "랃": 1443,
      "랄": 1444,
      "랅": 1445,
      "랆": 1446,
      "랋": 1447,
      "람": 1448,
      "랍": 1449,
      "랏": 1450,
      "랐": 1451,
      "랑": 1452,
      "랒": 1453,
      "랕": 1454,
      "랖": 1455,
      "랗": 1456,
      "래": 1457,
      "랙": 1458,
      "랜": 1459,
      "랟": 1460,
      "랠": 1461,
      "램": 1462,
      "랩": 1463,
      "랫": 1464,
      "랬": 1465,
      "랭": 1466,
      "랱": 1467,
      "랲": 1468,
      "랳": 1469,
      "랴": 1470,
      "략": 1471,
      "랸": 1472,
      "랼": 1473,
      "럂": 1474,
      "럃": 1475,
      "럄": 1476,
      "럅": 1477,
      "럆": 1478,
      "럇": 1479,
      "럈": 1480,
      "량": 1481,
      "럊": 1482,
      "럌": 1483,
      "럏": 1484,
      "럐": 1485,
      "럑": 1486,
      "럒": 1487,
      "럓": 1488,
      "럔": 1489,
      "럕": 1490,
      "럖": 1491,
      "럗": 1492,
      "럘": 1493,
      "럙": 1494,
      "럛": 1495,
      "럝": 1496,
      "럞": 1497,
      "럟": 1498,
      "럢": 1499,
      "럤": 1500,
      "럦": 1501,
      "러": 1502,
      "럭": 1503,
      "럮": 1504,
      "럯": 1505,
      "런": 1506,
      "럱": 1507,
      "럲": 1508,
      "럳": 1509,
      "럴": 1510,
      "럶": 1511,
      "럷": 1512,
      "럸": 1513,
      "럻": 1514,
      "럼": 1515,
      "럽": 1516,
      "럾": 1517,
      "럿": 1518,
      "렀": 1519,
      "렁": 1520,
      "렂": 1521,
      "렇": 1522,
      "레": 1523,
      "렉": 1524,
      "렊": 1525,
      "렌": 1526,
      "렍": 1527,
      "렏": 1528,
      "렐": 1529,
      "렘": 1530,
      "렙": 1531,
      "렛": 1532,
      "렜": 1533,
      "렝": 1534,
      "렟": 1535,
      "렡": 1536,
      "렣": 1537,
      "려": 1538,
      "력": 1539,
      "렧": 1540,
      "련": 1541,
      "렫": 1542,
      "렬": 1543,
      "렭": 1544,
      "렳": 1545,
      "렴": 1546,
      "렵": 1547,
      "렶": 1548,
      "렷": 1549,
      "렸": 1550,
      "령": 1551,
      "렺": 1552,
      "렿": 1553,
      "례": 1554,
      "롄": 1555,
      "롈": 1556,
      "롊": 1557,
      "롏": 1558,
      "롐": 1559,
      "롑": 1560,
      "롓": 1561,
      "롕": 1562,
      "로": 1563,
      "록": 1564,
      "롟": 1565,
      "론": 1566,
      "롣": 1567,
      "롤": 1568,
      "롥": 1569,
      "롩": 1570,
      "롬": 1571,
      "롭": 1572,
      "롯": 1573,
      "롱": 1574,
      "롴": 1575,
      "롵": 1576,
      "롷": 1577,
      "롸": 1578,
      "롹": 1579,
      "롼": 1580,
      "뢀": 1581,
      "뢋": 1582,
      "뢍": 1583,
      "뢔": 1584,
      "뢠": 1585,
      "뢡": 1586,
      "뢢": 1587,
      "뢤": 1588,
      "뢦": 1589,
      "뢨": 1590,
      "뢩": 1591,
      "뢬": 1592,
      "뢭": 1593,
      "뢮": 1594,
      "뢰": 1595,
      "뢱": 1596,
      "뢲": 1597,
      "뢳": 1598,
      "뢴": 1599,
      "뢵": 1600,
      "뢶": 1601,
      "뢷": 1602,
      "뢸": 1603,
      "뢹": 1604,
      "뢽": 1605,
      "룀": 1606,
      "룁": 1607,
      "룃": 1608,
      "룄": 1609,
      "룅": 1610,
      "료": 1611,
      "룍": 1612,
      "룏": 1613,
      "룐": 1614,
      "룑": 1615,
      "룔": 1616,
      "룜": 1617,
      "룝": 1618,
      "룟": 1619,
      "룡": 1620,
      "루": 1621,
      "룩": 1622,
      "룪": 1623,
      "룫": 1624,
      "룬": 1625,
      "룯": 1626,
      "룰": 1627,
      "룴": 1628,
      "룸": 1629,
      "룹": 1630,
      "룻": 1631,
      "룽": 1632,
      "뤀": 1633,
      "뤃": 1634,
      "뤄": 1635,
      "뤅": 1636,
      "뤈": 1637,
      "뤌": 1638,
      "뤗": 1639,
      "뤘": 1640,
      "뤙": 1641,
      "뤠": 1642,
      "뤤": 1643,
      "뤼": 1644,
      "뤽": 1645,
      "뤿": 1646,
      "륀": 1647,
      "륄": 1648,
      "륌": 1649,
      "륍": 1650,
      "륏": 1651,
      "륑": 1652,
      "류": 1653,
      "륙": 1654,
      "륚": 1655,
      "륜": 1656,
      "률": 1657,
      "륨": 1658,
      "륩": 1659,
      "륫": 1660,
      "륭": 1661,
      "륱": 1662,
      "륳": 1663,
      "르": 1664,
      "륵": 1665,
      "른": 1666,
      "륻": 1667,
      "를": 1668,
      "륾": 1669,
      "륿": 1670,
      "릀": 1671,
      "릂": 1672,
      "릃": 1673,
      "름": 1674,
      "릅": 1675,
      "릇": 1676,
      "릉": 1677,
      "릊": 1678,
      "릋": 1679,
      "릌": 1680,
      "릍": 1681,
      "릎": 1682,
      "릏": 1683,
      "릐": 1684,
      "릑": 1685,
      "릔": 1686,
      "릕": 1687,
      "릗": 1688,
      "릘": 1689,
      "릙": 1690,
      "릚": 1691,
      "릛": 1692,
      "릜": 1693,
      "릝": 1694,
      "릟": 1695,
      "릠": 1696,
      "릣": 1697,
      "릧": 1698,
      "릨": 1699,
      "릫": 1700,
      "리": 1701,
      "릭": 1702,
      "릮": 1703,
      "린": 1704,
      "릲": 1705,
      "릳": 1706,
      "릴": 1707,
      "릵": 1708,
      "릸": 1709,
      "릹": 1710,
      "림": 1711,
      "립": 1712,
      "릿": 1713,
      "맀": 1714,
      "링": 1715,
      "맂": 1716,
      "맄": 1717,
      "맅": 1718,
      "맆": 1719,
      "맇": 1720,
      "마": 1721,
      "막": 1722,
      "맊": 1723,
      "맋": 1724,
      "만": 1725,
      "맍": 1726,
      "많": 1727,
      "맏": 1728,
      "말": 1729,
      "맑": 1730,
      "맒": 1731,
      "맗": 1732,
      "맘": 1733,
      "맙": 1734,
      "맛": 1735,
      "맜": 1736,
      "망": 1737,
      "맞": 1738,
      "맟": 1739,
      "맠": 1740,
      "맡": 1741,
      "맣": 1742,
      "매": 1743,
      "맥": 1744,
      "맨": 1745,
      "맬": 1746,
      "맰": 1747,
      "맴": 1748,
      "맵": 1749,
      "맷": 1750,
      "맸": 1751,
      "맹": 1752,
      "맺": 1753,
      "맻": 1754,
      "맽": 1755,
      "먀": 1756,
      "먁": 1757,
      "먄": 1758,
      "먈": 1759,
      "먐": 1760,
      "먓": 1761,
      "먕": 1762,
      "먖": 1763,
      "먤": 1764,
      "먥": 1765,
      "먦": 1766,
      "먧": 1767,
      "먨": 1768,
      "먬": 1769,
      "먯": 1770,
      "먰": 1771,
      "먴": 1772,
      "머": 1773,
      "먹": 1774,
      "먻": 1775,
      "먼": 1776,
      "먾": 1777,
      "먿": 1778,
      "멀": 1779,
      "멁": 1780,
      "멂": 1781,
      "멅": 1782,
      "멇": 1783,
      "멈": 1784,
      "멉": 1785,
      "멊": 1786,
      "멋": 1787,
      "멌": 1788,
      "멍": 1789,
      "멎": 1790,
      "멏": 1791,
      "멐": 1792,
      "멒": 1793,
      "멓": 1794,
      "메": 1795,
      "멕": 1796,
      "멘": 1797,
      "멛": 1798,
      "멜": 1799,
      "멤": 1800,
      "멥": 1801,
      "멧": 1802,
      "멨": 1803,
      "멩": 1804,
      "멪": 1805,
      "멫": 1806,
      "며": 1807,
      "멱": 1808,
      "멲": 1809,
      "멳": 1810,
      "면": 1811,
      "멷": 1812,
      "멸": 1813,
      "멺": 1814,
      "멿": 1815,
      "몀": 1816,
      "몁": 1817,
      "몃": 1818,
      "몄": 1819,
      "명": 1820,
      "몆": 1821,
      "몇": 1822,
      "몈": 1823,
      "몊": 1824,
      "몌": 1825,
      "몎": 1826,
      "몏": 1827,
      "몐": 1828,
      "몓": 1829,
      "몡": 1830,
      "몣": 1831,
      "모": 1832,
      "목": 1833,
      "몫": 1834,
      "몬": 1835,
      "몯": 1836,
      "몰": 1837,
      "몱": 1838,
      "몲": 1839,
      "몴": 1840,
      "몷": 1841,
      "몸": 1842,
      "몹": 1843,
      "못": 1844,
      "몼": 1845,
      "몽": 1846,
      "몾": 1847,
      "몿": 1848,
      "뫁": 1849,
      "뫃": 1850,
      "뫄": 1851,
      "뫆": 1852,
      "뫈": 1853,
      "뫌": 1854,
      "뫏": 1855,
      "뫑": 1856,
      "뫒": 1857,
      "뫓": 1858,
      "뫔": 1859,
      "뫕": 1860,
      "뫗": 1861,
      "뫘": 1862,
      "뫙": 1863,
      "뫚": 1864,
      "뫜": 1865,
      "뫝": 1866,
      "뫞": 1867,
      "뫟": 1868,
      "뫠": 1869,
      "뫡": 1870,
      "뫧": 1871,
      "뫴": 1872,
      "뫼": 1873,
      "뫽": 1874,
      "묀": 1875,
      "묃": 1876,
      "묄": 1877,
      "묌": 1878,
      "묍": 1879,
      "묏": 1880,
      "묐": 1881,
      "묑": 1882,
      "묘": 1883,
      "묙": 1884,
      "묜": 1885,
      "묠": 1886,
      "묨": 1887,
      "묩": 1888,
      "묫": 1889,
      "묬": 1890,
      "묭": 1891,
      "무": 1892,
      "묵": 1893,
      "묶": 1894,
      "묷": 1895,
      "문": 1896,
      "묹": 1897,
      "묺": 1898,
      "묻": 1899,
      "물": 1900,
      "묽": 1901,
      "묾": 1902,
      "뭀": 1903,
      "뭄": 1904,
      "뭅": 1905,
      "뭇": 1906,
      "뭉": 1907,
      "뭊": 1908,
      "뭋": 1909,
      "뭍": 1910,
      "뭎": 1911,
      "뭏": 1912,
      "뭐": 1913,
      "뭑": 1914,
      "뭓": 1915,
      "뭔": 1916,
      "뭗": 1917,
      "뭘": 1918,
      "뭙": 1919,
      "뭝": 1920,
      "뭠": 1921,
      "뭡": 1922,
      "뭣": 1923,
      "뭤": 1924,
      "뭥": 1925,
      "뭨": 1926,
      "뭩": 1927,
      "뭪": 1928,
      "뭬": 1929,
      "뭲": 1930,
      "뭶": 1931,
      "뭺": 1932,
      "뭽": 1933,
      "뮄": 1934,
      "뮈": 1935,
      "뮊": 1936,
      "뮌": 1937,
      "뮐": 1938,
      "뮕": 1939,
      "뮙": 1940,
      "뮛": 1941,
      "뮝": 1942,
      "뮤": 1943,
      "뮨": 1944,
      "뮬": 1945,
      "뮭": 1946,
      "뮴": 1947,
      "뮷": 1948,
      "뮸": 1949,
      "뮹": 1950,
      "뮺": 1951,
      "므": 1952,
      "믁": 1953,
      "믄": 1954,
      "믇": 1955,
      "믈": 1956,
      "믉": 1957,
      "믌": 1958,
      "믐": 1959,
      "믑": 1960,
      "믓": 1961,
      "믕": 1962,
      "믛": 1963,
      "믜": 1964,
      "믝": 1965,
      "믟": 1966,
      "믠": 1967,
      "믭": 1968,
      "믯": 1969,
      "믱": 1970,
      "미": 1971,
      "믹": 1972,
      "민": 1973,
      "믾": 1974,
      "믿": 1975,
      "밀": 1976,
      "밂": 1977,
      "밃": 1978,
      "밄": 1979,
      "밅": 1980,
      "밆": 1981,
      "밇": 1982,
      "밈": 1983,
      "밉": 1984,
      "밊": 1985,
      "밋": 1986,
      "밌": 1987,
      "밍": 1988,
      "밎": 1989,
      "및": 1990,
      "밐": 1991,
      "밑": 1992,
      "밒": 1993,
      "바": 1994,
      "박": 1995,
      "밖": 1996,
      "밗": 1997,
      "반": 1998,
      "밚": 1999,
      "받": 2000,
      "발": 2001,
      "밝": 2002,
      "밞": 2003,
      "밟": 2004,
      "밠": 2005,
      "밡": 2006,
      "밢": 2007,
      "밣": 2008,
      "밤": 2009,
      "밥": 2010,
      "밧": 2011,
      "밨": 2012,
      "방": 2013,
      "밪": 2014,
      "밫": 2015,
      "밬": 2016,
      "밭": 2017,
      "밮": 2018,
      "밯": 2019,
      "배": 2020,
      "백": 2021,
      "밲": 2022,
      "밴": 2023,
      "밵": 2024,
      "밶": 2025,
      "밷": 2026,
      "밸": 2027,
      "밻": 2028,
      "밼": 2029,
      "밿": 2030,
      "뱀": 2031,
      "뱁": 2032,
      "뱂": 2033,
      "뱃": 2034,
      "뱄": 2035,
      "뱅": 2036,
      "뱉": 2037,
      "뱌": 2038,
      "뱍": 2039,
      "뱐": 2040,
      "뱔": 2041,
      "뱖": 2042,
      "뱗": 2043,
      "뱚": 2044,
      "뱜": 2045,
      "뱝": 2046,
      "뱟": 2047,
      "뱡": 2048,
      "뱩": 2049,
      "뱸": 2050,
      "뱻": 2051,
      "뱼": 2052,
      "뱿": 2053,
      "벃": 2054,
      "버": 2055,
      "벅": 2056,
      "번": 2057,
      "벋": 2058,
      "벌": 2059,
      "벍": 2060,
      "벎": 2061,
      "벑": 2062,
      "벓": 2063,
      "범": 2064,
      "법": 2065,
      "벗": 2066,
      "벘": 2067,
      "벙": 2068,
      "벚": 2069,
      "벛": 2070,
      "벜": 2071,
      "벝": 2072,
      "벟": 2073,
      "베": 2074,
      "벡": 2075,
      "벤": 2076,
      "벥": 2077,
      "벧": 2078,
      "벨": 2079,
      "벩": 2080,
      "벪": 2081,
      "벫": 2082,
      "벰": 2083,
      "벱": 2084,
      "벳": 2085,
      "벴": 2086,
      "벵": 2087,
      "벶": 2088,
      "벷": 2089,
      "벸": 2090,
      "벹": 2091,
      "벼": 2092,
      "벽": 2093,
      "변": 2094,
      "볂": 2095,
      "볃": 2096,
      "별": 2097,
      "볌": 2098,
      "볍": 2099,
      "볏": 2100,
      "볐": 2101,
      "병": 2102,
      "볓": 2103,
      "볔": 2104,
      "볕": 2105,
      "볘": 2106,
      "볜": 2107,
      "볭": 2108,
      "보": 2109,
      "복": 2110,
      "볶": 2111,
      "볷": 2112,
      "본": 2113,
      "볻": 2114,
      "볼": 2115,
      "볽": 2116,
      "볿": 2117,
      "봄": 2118,
      "봅": 2119,
      "봇": 2120,
      "봈": 2121,
      "봉": 2122,
      "봊": 2123,
      "봍": 2124,
      "봏": 2125,
      "봐": 2126,
      "봑": 2127,
      "봔": 2128,
      "봘": 2129,
      "봞": 2130,
      "봟": 2131,
      "봠": 2132,
      "봢": 2133,
      "봣": 2134,
      "봤": 2135,
      "봥": 2136,
      "봦": 2137,
      "봧": 2138,
      "봨": 2139,
      "봩": 2140,
      "봫": 2141,
      "봬": 2142,
      "봰": 2143,
      "봱": 2144,
      "봲": 2145,
      "봳": 2146,
      "봴": 2147,
      "봶": 2148,
      "봺": 2149,
      "봻": 2150,
      "봾": 2151,
      "뵀": 2152,
      "뵃": 2153,
      "뵈": 2154,
      "뵉": 2155,
      "뵌": 2156,
      "뵎": 2157,
      "뵐": 2158,
      "뵔": 2159,
      "뵘": 2160,
      "뵙": 2161,
      "뵛": 2162,
      "뵜": 2163,
      "뵝": 2164,
      "뵡": 2165,
      "뵤": 2166,
      "뵥": 2167,
      "뵨": 2168,
      "뵬": 2169,
      "뵸": 2170,
      "뵹": 2171,
      "뵺": 2172,
      "부": 2173,
      "북": 2174,
      "붂": 2175,
      "붃": 2176,
      "분": 2177,
      "붆": 2178,
      "붇": 2179,
      "불": 2180,
      "붉": 2181,
      "붊": 2182,
      "붋": 2183,
      "붏": 2184,
      "붐": 2185,
      "붑": 2186,
      "붒": 2187,
      "붓": 2188,
      "붕": 2189,
      "붖": 2190,
      "붗": 2191,
      "붘": 2192,
      "붙": 2193,
      "붚": 2194,
      "붜": 2195,
      "붝": 2196,
      "붠": 2197,
      "붤": 2198,
      "붰": 2199,
      "붳": 2200,
      "붴": 2201,
      "붷": 2202,
      "붸": 2203,
      "붹": 2204,
      "붼": 2205,
      "붿": 2206,
      "뷀": 2207,
      "뷁": 2208,
      "뷄": 2209,
      "뷆": 2210,
      "뷈": 2211,
      "뷊": 2212,
      "뷋": 2213,
      "뷏": 2214,
      "뷒": 2215,
      "뷔": 2216,
      "뷕": 2217,
      "뷘": 2218,
      "뷜": 2219,
      "뷧": 2220,
      "뷰": 2221,
      "뷱": 2222,
      "뷴": 2223,
      "뷸": 2224,
      "븀": 2225,
      "븁": 2226,
      "븂": 2227,
      "븃": 2228,
      "븅": 2229,
      "븇": 2230,
      "븉": 2231,
      "브": 2232,
      "븍": 2233,
      "븐": 2234,
      "븓": 2235,
      "블": 2236,
      "븕": 2237,
      "븖": 2238,
      "븜": 2239,
      "븝": 2240,
      "븟": 2241,
      "븡": 2242,
      "븥": 2243,
      "븨": 2244,
      "븬": 2245,
      "븰": 2246,
      "븴": 2247,
      "븸": 2248,
      "븹": 2249,
      "븼": 2250,
      "븿": 2251,
      "빀": 2252,
      "비": 2253,
      "빅": 2254,
      "빈": 2255,
      "빉": 2256,
      "빋": 2257,
      "빌": 2258,
      "빍": 2259,
      "빎": 2260,
      "빏": 2261,
      "빓": 2262,
      "빔": 2263,
      "빕": 2264,
      "빗": 2265,
      "빘": 2266,
      "빙": 2267,
      "빚": 2268,
      "빛": 2269,
      "빝": 2270,
      "빞": 2271,
      "빟": 2272,
      "빠": 2273,
      "빡": 2274,
      "빢": 2275,
      "빤": 2276,
      "빧": 2277,
      "빨": 2278,
      "빩": 2279,
      "빪": 2280,
      "빫": 2281,
      "빬": 2282,
      "빰": 2283,
      "빱": 2284,
      "빳": 2285,
      "빴": 2286,
      "빵": 2287,
      "빻": 2288,
      "빼": 2289,
      "빽": 2290,
      "빾": 2291,
      "뺀": 2292,
      "뺃": 2293,
      "뺄": 2294,
      "뺌": 2295,
      "뺍": 2296,
      "뺏": 2297,
      "뺐": 2298,
      "뺑": 2299,
      "뺕": 2300,
      "뺗": 2301,
      "뺘": 2302,
      "뺙": 2303,
      "뺨": 2304,
      "뺯": 2305,
      "뺴": 2306,
      "뺵": 2307,
      "뺸": 2308,
      "뺼": 2309,
      "뻀": 2310,
      "뻇": 2311,
      "뻉": 2312,
      "뻊": 2313,
      "뻌": 2314,
      "뻐": 2315,
      "뻑": 2316,
      "뻔": 2317,
      "뻕": 2318,
      "뻗": 2319,
      "뻘": 2320,
      "뻙": 2321,
      "뻠": 2322,
      "뻡": 2323,
      "뻣": 2324,
      "뻤": 2325,
      "뻥": 2326,
      "뻦": 2327,
      "뻨": 2328,
      "뻩": 2329,
      "뻬": 2330,
      "뻭": 2331,
      "뻰": 2332,
      "뻴": 2333,
      "뻶": 2334,
      "뻺": 2335,
      "뻾": 2336,
      "뻿": 2337,
      "뼁": 2338,
      "뼇": 2339,
      "뼈": 2340,
      "뼉": 2341,
      "뼌": 2342,
      "뼏": 2343,
      "뼐": 2344,
      "뼘": 2345,
      "뼙": 2346,
      "뼛": 2347,
      "뼜": 2348,
      "뼝": 2349,
      "뼞": 2350,
      "뼡": 2351,
      "뼱": 2352,
      "뼳": 2353,
      "뽀": 2354,
      "뽁": 2355,
      "뽂": 2356,
      "뽄": 2357,
      "뽈": 2358,
      "뽐": 2359,
      "뽑": 2360,
      "뽓": 2361,
      "뽕": 2362,
      "뽜": 2363,
      "뽥": 2364,
      "뽹": 2365,
      "뾔": 2366,
      "뾞": 2367,
      "뾟": 2368,
      "뾢": 2369,
      "뾥": 2370,
      "뾦": 2371,
      "뾫": 2372,
      "뾬": 2373,
      "뾮": 2374,
      "뾯": 2375,
      "뾰": 2376,
      "뾱": 2377,
      "뾳": 2378,
      "뾵": 2379,
      "뿄": 2380,
      "뿅": 2381,
      "뿌": 2382,
      "뿍": 2383,
      "뿐": 2384,
      "뿔": 2385,
      "뿕": 2386,
      "뿜": 2387,
      "뿝": 2388,
      "뿟": 2389,
      "뿠": 2390,
      "뿡": 2391,
      "뿥": 2392,
      "뿩": 2393,
      "뿶": 2394,
      "뿷": 2395,
      "뿸": 2396,
      "뿾": 2397,
      "쀠": 2398,
      "쀨": 2399,
      "쀼": 2400,
      "쁑": 2401,
      "쁘": 2402,
      "쁙": 2403,
      "쁜": 2404,
      "쁝": 2405,
      "쁞": 2406,
      "쁠": 2407,
      "쁢": 2408,
      "쁦": 2409,
      "쁨": 2410,
      "쁩": 2411,
      "쁭": 2412,
      "쁰": 2413,
      "쁴": 2414,
      "쁵": 2415,
      "쁶": 2416,
      "쁹": 2417,
      "쁺": 2418,
      "쁾": 2419,
      "삏": 2420,
      "삐": 2421,
      "삑": 2422,
      "삔": 2423,
      "삘": 2424,
      "삠": 2425,
      "삡": 2426,
      "삣": 2427,
      "삤": 2428,
      "삥": 2429,
      "삦": 2430,
      "삧": 2431,
      "사": 2432,
      "삭": 2433,
      "삮": 2434,
      "삯": 2435,
      "산": 2436,
      "삲": 2437,
      "삳": 2438,
      "살": 2439,
      "삵": 2440,
      "삶": 2441,
      "삷": 2442,
      "삸": 2443,
      "삻": 2444,
      "삼": 2445,
      "삽": 2446,
      "삿": 2447,
      "샀": 2448,
      "상": 2449,
      "샂": 2450,
      "샅": 2451,
      "샆": 2452,
      "샇": 2453,
      "새": 2454,
      "색": 2455,
      "샌": 2456,
      "샏": 2457,
      "샐": 2458,
      "샔": 2459,
      "샘": 2460,
      "샙": 2461,
      "샛": 2462,
      "샜": 2463,
      "생": 2464,
      "샞": 2465,
      "샢": 2466,
      "샤": 2467,
      "샥": 2468,
      "샨": 2469,
      "샬": 2470,
      "샴": 2471,
      "샵": 2472,
      "샷": 2473,
      "샸": 2474,
      "샹": 2475,
      "샾": 2476,
      "섀": 2477,
      "섁": 2478,
      "섂": 2479,
      "섃": 2480,
      "섄": 2481,
      "섇": 2482,
      "섈": 2483,
      "섌": 2484,
      "섐": 2485,
      "섑": 2486,
      "섕": 2487,
      "섛": 2488,
      "서": 2489,
      "석": 2490,
      "섞": 2491,
      "섟": 2492,
      "선": 2493,
      "섣": 2494,
      "설": 2495,
      "섥": 2496,
      "섦": 2497,
      "섧": 2498,
      "섪": 2499,
      "섫": 2500,
      "섬": 2501,
      "섭": 2502,
      "섯": 2503,
      "섰": 2504,
      "성": 2505,
      "섲": 2506,
      "섴": 2507,
      "섶": 2508,
      "섷": 2509,
      "세": 2510,
      "섹": 2511,
      "섻": 2512,
      "센": 2513,
      "섾": 2514,
      "섿": 2515,
      "셀": 2516,
      "셈": 2517,
      "셉": 2518,
      "셋": 2519,
      "셌": 2520,
      "셍": 2521,
      "셑": 2522,
      "셔": 2523,
      "셕": 2524,
      "션": 2525,
      "셜": 2526,
      "셟": 2527,
      "셤": 2528,
      "셥": 2529,
      "셧": 2530,
      "셨": 2531,
      "셩": 2532,
      "셬": 2533,
      "셮": 2534,
      "셰": 2535,
      "셱": 2536,
      "셳": 2537,
      "셴": 2538,
      "셸": 2539,
      "솀": 2540,
      "솁": 2541,
      "솃": 2542,
      "솅": 2543,
      "소": 2544,
      "속": 2545,
      "솎": 2546,
      "솏": 2547,
      "손": 2548,
      "솑": 2549,
      "솓": 2550,
      "솔": 2551,
      "솖": 2552,
      "솜": 2553,
      "솝": 2554,
      "솟": 2555,
      "송": 2556,
      "솢": 2557,
      "솣": 2558,
      "솥": 2559,
      "솦": 2560,
      "솨": 2561,
      "솩": 2562,
      "솪": 2563,
      "솫": 2564,
      "솬": 2565,
      "솰": 2566,
      "솴": 2567,
      "솽": 2568,
      "쇁": 2569,
      "쇄": 2570,
      "쇈": 2571,
      "쇌": 2572,
      "쇎": 2573,
      "쇔": 2574,
      "쇗": 2575,
      "쇘": 2576,
      "쇙": 2577,
      "쇝": 2578,
      "쇠": 2579,
      "쇡": 2580,
      "쇤": 2581,
      "쇨": 2582,
      "쇰": 2583,
      "쇱": 2584,
      "쇳": 2585,
      "쇴": 2586,
      "쇵": 2587,
      "쇼": 2588,
      "쇽": 2589,
      "숀": 2590,
      "숄": 2591,
      "숌": 2592,
      "숍": 2593,
      "숏": 2594,
      "숑": 2595,
      "숖": 2596,
      "수": 2597,
      "숙": 2598,
      "순": 2599,
      "숟": 2600,
      "술": 2601,
      "숡": 2602,
      "숤": 2603,
      "숨": 2604,
      "숩": 2605,
      "숫": 2606,
      "숭": 2607,
      "숮": 2608,
      "숯": 2609,
      "숱": 2610,
      "숲": 2611,
      "숳": 2612,
      "숴": 2613,
      "숸": 2614,
      "숼": 2615,
      "쉅": 2616,
      "쉇": 2617,
      "쉈": 2618,
      "쉉": 2619,
      "쉊": 2620,
      "쉋": 2621,
      "쉌": 2622,
      "쉍": 2623,
      "쉎": 2624,
      "쉐": 2625,
      "쉑": 2626,
      "쉓": 2627,
      "쉔": 2628,
      "쉕": 2629,
      "쉗": 2630,
      "쉘": 2631,
      "쉜": 2632,
      "쉝": 2633,
      "쉞": 2634,
      "쉠": 2635,
      "쉡": 2636,
      "쉣": 2637,
      "쉤": 2638,
      "쉥": 2639,
      "쉧": 2640,
      "쉨": 2641,
      "쉪": 2642,
      "쉬": 2643,
      "쉭": 2644,
      "쉰": 2645,
      "쉴": 2646,
      "쉺": 2647,
      "쉼": 2648,
      "쉽": 2649,
      "쉿": 2650,
      "슀": 2651,
      "슁": 2652,
      "슅": 2653,
      "슆": 2654,
      "슈": 2655,
      "슉": 2656,
      "슌": 2657,
      "슏": 2658,
      "슐": 2659,
      "슘": 2660,
      "슙": 2661,
      "슛": 2662,
      "슝": 2663,
      "슟": 2664,
      "스": 2665,
      "슥": 2666,
      "슨": 2667,
      "슫": 2668,
      "슬": 2669,
      "슭": 2670,
      "슯": 2671,
      "슰": 2672,
      "슲": 2673,
      "슳": 2674,
      "슴": 2675,
      "습": 2676,
      "슷": 2677,
      "승": 2678,
      "슻": 2679,
      "슼": 2680,
      "슽": 2681,
      "슾": 2682,
      "슿": 2683,
      "싀": 2684,
      "싁": 2685,
      "싄": 2686,
      "싈": 2687,
      "싐": 2688,
      "싑": 2689,
      "시": 2690,
      "식": 2691,
      "신": 2692,
      "싡": 2693,
      "싢": 2694,
      "싣": 2695,
      "실": 2696,
      "싥": 2697,
      "싦": 2698,
      "싧": 2699,
      "싩": 2700,
      "싫": 2701,
      "심": 2702,
      "십": 2703,
      "싯": 2704,
      "싰": 2705,
      "싱": 2706,
      "싲": 2707,
      "싳": 2708,
      "싴": 2709,
      "싵": 2710,
      "싶": 2711,
      "싷": 2712,
      "싸": 2713,
      "싹": 2714,
      "싺": 2715,
      "싻": 2716,
      "싼": 2717,
      "싾": 2718,
      "싿": 2719,
      "쌀": 2720,
      "쌂": 2721,
      "쌈": 2722,
      "쌉": 2723,
      "쌋": 2724,
      "쌌": 2725,
      "쌍": 2726,
      "쌒": 2727,
      "쌓": 2728,
      "쌔": 2729,
      "쌕": 2730,
      "쌘": 2731,
      "쌜": 2732,
      "쌤": 2733,
      "쌥": 2734,
      "쌧": 2735,
      "쌨": 2736,
      "쌩": 2737,
      "쌯": 2738,
      "쌰": 2739,
      "쌱": 2740,
      "쌲": 2741,
      "쌳": 2742,
      "쌴": 2743,
      "쌷": 2744,
      "쌺": 2745,
      "쌻": 2746,
      "썃": 2747,
      "썅": 2748,
      "썈": 2749,
      "썎": 2750,
      "썡": 2751,
      "써": 2752,
      "썩": 2753,
      "썪": 2754,
      "썬": 2755,
      "썭": 2756,
      "썯": 2757,
      "썰": 2758,
      "썲": 2759,
      "썳": 2760,
      "썴": 2761,
      "썷": 2762,
      "썸": 2763,
      "썹": 2764,
      "썻": 2765,
      "썼": 2766,
      "썽": 2767,
      "썾": 2768,
      "쎁": 2769,
      "쎃": 2770,
      "쎄": 2771,
      "쎅": 2772,
      "쎈": 2773,
      "쎌": 2774,
      "쎔": 2775,
      "쎕": 2776,
      "쎗": 2777,
      "쎘": 2778,
      "쎙": 2779,
      "쎠": 2780,
      "쎡": 2781,
      "쎤": 2782,
      "쎧": 2783,
      "쎳": 2784,
      "쎴": 2785,
      "쎻": 2786,
      "쎼": 2787,
      "쎾": 2788,
      "쏀": 2789,
      "쏄": 2790,
      "쏘": 2791,
      "쏙": 2792,
      "쏛": 2793,
      "쏜": 2794,
      "쏟": 2795,
      "쏠": 2796,
      "쏢": 2797,
      "쏨": 2798,
      "쏩": 2799,
      "쏫": 2800,
      "쏬": 2801,
      "쏭": 2802,
      "쏱": 2803,
      "쏳": 2804,
      "쏴": 2805,
      "쏵": 2806,
      "쏸": 2807,
      "쏼": 2808,
      "쏿": 2809,
      "쐀": 2810,
      "쐃": 2811,
      "쐇": 2812,
      "쐈": 2813,
      "쐉": 2814,
      "쐍": 2815,
      "쐐": 2816,
      "쐑": 2817,
      "쐓": 2818,
      "쐕": 2819,
      "쐖": 2820,
      "쐗": 2821,
      "쐛": 2822,
      "쐜": 2823,
      "쐟": 2824,
      "쐤": 2825,
      "쐥": 2826,
      "쐬": 2827,
      "쐭": 2828,
      "쐰": 2829,
      "쐲": 2830,
      "쐳": 2831,
      "쐴": 2832,
      "쐼": 2833,
      "쐽": 2834,
      "쐿": 2835,
      "쑀": 2836,
      "쑁": 2837,
      "쑂": 2838,
      "쑈": 2839,
      "쑉": 2840,
      "쑘": 2841,
      "쑝": 2842,
      "쑤": 2843,
      "쑥": 2844,
      "쑨": 2845,
      "쑫": 2846,
      "쑬": 2847,
      "쑴": 2848,
      "쑵": 2849,
      "쑹": 2850,
      "쒀": 2851,
      "쒊": 2852,
      "쒋": 2853,
      "쒎": 2854,
      "쒒": 2855,
      "쒔": 2856,
      "쒕": 2857,
      "쒛": 2858,
      "쒜": 2859,
      "쒞": 2860,
      "쒠": 2861,
      "쒡": 2862,
      "쒢": 2863,
      "쒨": 2864,
      "쒪": 2865,
      "쒮": 2866,
      "쒲": 2867,
      "쒸": 2868,
      "쒼": 2869,
      "쓀": 2870,
      "쓆": 2871,
      "쓇": 2872,
      "쓉": 2873,
      "쓊": 2874,
      "쓎": 2875,
      "쓔": 2876,
      "쓖": 2877,
      "쓘": 2878,
      "쓚": 2879,
      "쓛": 2880,
      "쓜": 2881,
      "쓠": 2882,
      "쓥": 2883,
      "쓩": 2884,
      "쓰": 2885,
      "쓱": 2886,
      "쓴": 2887,
      "쓷": 2888,
      "쓸": 2889,
      "쓺": 2890,
      "쓿": 2891,
      "씀": 2892,
      "씁": 2893,
      "씃": 2894,
      "씅": 2895,
      "씉": 2896,
      "씊": 2897,
      "씌": 2898,
      "씎": 2899,
      "씐": 2900,
      "씓": 2901,
      "씔": 2902,
      "씜": 2903,
      "씟": 2904,
      "씠": 2905,
      "씣": 2906,
      "씨": 2907,
      "씩": 2908,
      "씪": 2909,
      "씬": 2910,
      "씯": 2911,
      "씰": 2912,
      "씱": 2913,
      "씸": 2914,
      "씹": 2915,
      "씻": 2916,
      "씼": 2917,
      "씽": 2918,
      "앂": 2919,
      "앃": 2920,
      "아": 2921,
      "악": 2922,
      "앆": 2923,
      "안": 2924,
      "앉": 2925,
      "않": 2926,
      "앋": 2927,
      "알": 2928,
      "앍": 2929,
      "앎": 2930,
      "앏": 2931,
      "앐": 2932,
      "앑": 2933,
      "앒": 2934,
      "앓": 2935,
      "암": 2936,
      "압": 2937,
      "앖": 2938,
      "앗": 2939,
      "았": 2940,
      "앙": 2941,
      "앚": 2942,
      "앛": 2943,
      "앜": 2944,
      "앝": 2945,
      "앞": 2946,
      "앟": 2947,
      "애": 2948,
      "액": 2949,
      "앤": 2950,
      "앧": 2951,
      "앨": 2952,
      "앰": 2953,
      "앱": 2954,
      "앳": 2955,
      "앴": 2956,
      "앵": 2957,
      "앻": 2958,
      "야": 2959,
      "약": 2960,
      "얀": 2961,
      "얄": 2962,
      "얅": 2963,
      "얆": 2964,
      "얇": 2965,
      "얉": 2966,
      "얌": 2967,
      "얍": 2968,
      "얎": 2969,
      "얏": 2970,
      "얐": 2971,
      "양": 2972,
      "얕": 2973,
      "얖": 2974,
      "얗": 2975,
      "얘": 2976,
      "얙": 2977,
      "얜": 2978,
      "얠": 2979,
      "얦": 2980,
      "얨": 2981,
      "얩": 2982,
      "얫": 2983,
      "얬": 2984,
      "얭": 2985,
      "얯": 2986,
      "얳": 2987,
      "어": 2988,
      "억": 2989,
      "얶": 2990,
      "얷": 2991,
      "언": 2992,
      "얹": 2993,
      "얺": 2994,
      "얻": 2995,
      "얼": 2996,
      "얽": 2997,
      "얾": 2998,
      "엀": 2999,
      "엄": 3000,
      "업": 3001,
      "없": 3002,
      "엇": 3003,
      "었": 3004,
      "엉": 3005,
      "엊": 3006,
      "엌": 3007,
      "엍": 3008,
      "엎": 3009,
      "엏": 3010,
      "에": 3011,
      "엑": 3012,
      "엔": 3013,
      "엗": 3014,
      "엘": 3015,
      "엛": 3016,
      "엜": 3017,
      "엝": 3018,
      "엠": 3019,
      "엡": 3020,
      "엣": 3021,
      "엤": 3022,
      "엥": 3023,
      "엦": 3024,
      "엨": 3025,
      "엩": 3026,
      "여": 3027,
      "역": 3028,
      "엮": 3029,
      "엯": 3030,
      "연": 3031,
      "엱": 3032,
      "엲": 3033,
      "엳": 3034,
      "열": 3035,
      "엵": 3036,
      "엶": 3037,
      "엷": 3038,
      "엸": 3039,
      "엹": 3040,
      "염": 3041,
      "엽": 3042,
      "엾": 3043,
      "엿": 3044,
      "였": 3045,
      "영": 3046,
      "옂": 3047,
      "옃": 3048,
      "옄": 3049,
      "옅": 3050,
      "옆": 3051,
      "옇": 3052,
      "예": 3053,
      "옉": 3054,
      "옋": 3055,
      "옌": 3056,
      "옎": 3057,
      "옐": 3058,
      "옘": 3059,
      "옙": 3060,
      "옛": 3061,
      "옜": 3062,
      "옝": 3063,
      "옞": 3064,
      "옟": 3065,
      "오": 3066,
      "옥": 3067,
      "온": 3068,
      "옪": 3069,
      "옫": 3070,
      "올": 3071,
      "옭": 3072,
      "옮": 3073,
      "옯": 3074,
      "옰": 3075,
      "옳": 3076,
      "옴": 3077,
      "옵": 3078,
      "옶": 3079,
      "옷": 3080,
      "옸": 3081,
      "옹": 3082,
      "옺": 3083,
      "옻": 3084,
      "옽": 3085,
      "옾": 3086,
      "옿": 3087,
      "와": 3088,
      "왁": 3089,
      "완": 3090,
      "왆": 3091,
      "왇": 3092,
      "왈": 3093,
      "왉": 3094,
      "왊": 3095,
      "왍": 3096,
      "왏": 3097,
      "왐": 3098,
      "왑": 3099,
      "왒": 3100,
      "왓": 3101,
      "왔": 3102,
      "왕": 3103,
      "왚": 3104,
      "왛": 3105,
      "왜": 3106,
      "왝": 3107,
      "왠": 3108,
      "왤": 3109,
      "왬": 3110,
      "왭": 3111,
      "왯": 3112,
      "왰": 3113,
      "왱": 3114,
      "외": 3115,
      "왹": 3116,
      "왼": 3117,
      "욀": 3118,
      "욂": 3119,
      "욈": 3120,
      "욉": 3121,
      "욋": 3122,
      "욌": 3123,
      "욍": 3124,
      "요": 3125,
      "욕": 3126,
      "욘": 3127,
      "욜": 3128,
      "욤": 3129,
      "욥": 3130,
      "욧": 3131,
      "욨": 3132,
      "용": 3133,
      "욪": 3134,
      "욯": 3135,
      "우": 3136,
      "욱": 3137,
      "욳": 3138,
      "운": 3139,
      "욷": 3140,
      "울": 3141,
      "욹": 3142,
      "욺": 3143,
      "욼": 3144,
      "욿": 3145,
      "움": 3146,
      "웁": 3147,
      "웂": 3148,
      "웃": 3149,
      "웄": 3150,
      "웅": 3151,
      "웆": 3152,
      "웇": 3153,
      "웈": 3154,
      "웉": 3155,
      "웊": 3156,
      "웋": 3157,
      "워": 3158,
      "웍": 3159,
      "웏": 3160,
      "원": 3161,
      "웑": 3162,
      "웒": 3163,
      "웓": 3164,
      "월": 3165,
      "웕": 3166,
      "웗": 3167,
      "웘": 3168,
      "웙": 3169,
      "웛": 3170,
      "웜": 3171,
      "웝": 3172,
      "웞": 3173,
      "웟": 3174,
      "웠": 3175,
      "웡": 3176,
      "웢": 3177,
      "웣": 3178,
      "웤": 3179,
      "웥": 3180,
      "웦": 3181,
      "웧": 3182,
      "웨": 3183,
      "웩": 3184,
      "웪": 3185,
      "웫": 3186,
      "웬": 3187,
      "웭": 3188,
      "웮": 3189,
      "웰": 3190,
      "웳": 3191,
      "웸": 3192,
      "웹": 3193,
      "웻": 3194,
      "웼": 3195,
      "웽": 3196,
      "윁": 3197,
      "위": 3198,
      "윅": 3199,
      "윈": 3200,
      "윌": 3201,
      "윔": 3202,
      "윕": 3203,
      "윗": 3204,
      "윘": 3205,
      "윙": 3206,
      "윚": 3207,
      "윛": 3208,
      "윞": 3209,
      "윟": 3210,
      "유": 3211,
      "육": 3212,
      "윢": 3213,
      "윤": 3214,
      "윥": 3215,
      "율": 3216,
      "윪": 3217,
      "윰": 3218,
      "윱": 3219,
      "윲": 3220,
      "윳": 3221,
      "융": 3222,
      "윶": 3223,
      "윷": 3224,
      "윹": 3225,
      "윻": 3226,
      "으": 3227,
      "윽": 3228,
      "윿": 3229,
      "은": 3230,
      "읃": 3231,
      "을": 3232,
      "읅": 3233,
      "읆": 3234,
      "읇": 3235,
      "읊": 3236,
      "읋": 3237,
      "음": 3238,
      "읍": 3239,
      "읎": 3240,
      "읏": 3241,
      "응": 3242,
      "읒": 3243,
      "읓": 3244,
      "읔": 3245,
      "읕": 3246,
      "읖": 3247,
      "읗": 3248,
      "의": 3249,
      "읜": 3250,
      "읟": 3251,
      "읠": 3252,
      "읨": 3253,
      "읩": 3254,
      "읫": 3255,
      "읬": 3256,
      "읭": 3257,
      "읳": 3258,
      "이": 3259,
      "익": 3260,
      "읶": 3261,
      "인": 3262,
      "읹": 3263,
      "읺": 3264,
      "읻": 3265,
      "일": 3266,
      "읽": 3267,
      "읾": 3268,
      "읿": 3269,
      "잀": 3270,
      "잂": 3271,
      "잃": 3272,
      "임": 3273,
      "입": 3274,
      "잆": 3275,
      "잇": 3276,
      "있": 3277,
      "잉": 3278,
      "잊": 3279,
      "잋": 3280,
      "잌": 3281,
      "잍": 3282,
      "잎": 3283,
      "잏": 3284,
      "자": 3285,
      "작": 3286,
      "잓": 3287,
      "잔": 3288,
      "잖": 3289,
      "잗": 3290,
      "잘": 3291,
      "잚": 3292,
      "잛": 3293,
      "잟": 3294,
      "잠": 3295,
      "잡": 3296,
      "잣": 3297,
      "잤": 3298,
      "장": 3299,
      "잦": 3300,
      "잧": 3301,
      "잩": 3302,
      "잪": 3303,
      "잫": 3304,
      "재": 3305,
      "잭": 3306,
      "잰": 3307,
      "잲": 3308,
      "잴": 3309,
      "잸": 3310,
      "잼": 3311,
      "잽": 3312,
      "잿": 3313,
      "쟀": 3314,
      "쟁": 3315,
      "쟂": 3316,
      "쟃": 3317,
      "쟆": 3318,
      "쟈": 3319,
      "쟉": 3320,
      "쟌": 3321,
      "쟍": 3322,
      "쟎": 3323,
      "쟐": 3324,
      "쟕": 3325,
      "쟖": 3326,
      "쟘": 3327,
      "쟙": 3328,
      "쟛": 3329,
      "쟝": 3330,
      "쟞": 3331,
      "쟟": 3332,
      "쟢": 3333,
      "쟤": 3334,
      "쟥": 3335,
      "쟧": 3336,
      "쟨": 3337,
      "쟩": 3338,
      "쟬": 3339,
      "쟱": 3340,
      "쟳": 3341,
      "쟵": 3342,
      "쟷": 3343,
      "쟸": 3344,
      "쟻": 3345,
      "쟼": 3346,
      "쟿": 3347,
      "저": 3348,
      "적": 3349,
      "젂": 3350,
      "전": 3351,
      "젅": 3352,
      "젆": 3353,
      "젇": 3354,
      "절": 3355,
      "젉": 3356,
      "젊": 3357,
      "젋": 3358,
      "젌": 3359,
      "젏": 3360,
      "점": 3361,
      "접": 3362,
      "젒": 3363,
      "젓": 3364,
      "젔": 3365,
      "정": 3366,
      "젖": 3367,
      "젗": 3368,
      "젙": 3369,
      "젚": 3370,
      "젛": 3371,
      "제": 3372,
      "젝": 3373,
      "젞": 3374,
      "젠": 3375,
      "젤": 3376,
      "젬": 3377,
      "젭": 3378,
      "젯": 3379,
      "젰": 3380,
      "젱": 3381,
      "젲": 3382,
      "젶": 3383,
      "져": 3384,
      "젹": 3385,
      "젺": 3386,
      "젼": 3387,
      "졀": 3388,
      "졂": 3389,
      "졃": 3390,
      "졈": 3391,
      "졉": 3392,
      "졋": 3393,
      "졌": 3394,
      "졍": 3395,
      "졎": 3396,
      "졑": 3397,
      "졔": 3398,
      "졕": 3399,
      "졘": 3400,
      "졧": 3401,
      "졩": 3402,
      "조": 3403,
      "족": 3404,
      "존": 3405,
      "졶": 3406,
      "졷": 3407,
      "졸": 3408,
      "졹": 3409,
      "졺": 3410,
      "졻": 3411,
      "졾": 3412,
      "좀": 3413,
      "좁": 3414,
      "좃": 3415,
      "종": 3416,
      "좆": 3417,
      "좇": 3418,
      "좈": 3419,
      "좉": 3420,
      "좋": 3421,
      "좌": 3422,
      "좍": 3423,
      "좐": 3424,
      "좓": 3425,
      "좔": 3426,
      "좘": 3427,
      "좚": 3428,
      "좛": 3429,
      "좝": 3430,
      "좟": 3431,
      "좠": 3432,
      "좡": 3433,
      "좣": 3434,
      "좥": 3435,
      "좦": 3436,
      "좧": 3437,
      "좨": 3438,
      "좩": 3439,
      "좪": 3440,
      "좫": 3441,
      "좬": 3442,
      "좭": 3443,
      "좮": 3444,
      "좯": 3445,
      "좰": 3446,
      "좱": 3447,
      "좶": 3448,
      "좷": 3449,
      "좺": 3450,
      "좼": 3451,
      "좽": 3452,
      "죂": 3453,
      "죃": 3454,
      "죄": 3455,
      "죇": 3456,
      "죈": 3457,
      "죌": 3458,
      "죍": 3459,
      "죐": 3460,
      "죔": 3461,
      "죕": 3462,
      "죗": 3463,
      "죘": 3464,
      "죙": 3465,
      "죚": 3466,
      "죜": 3467,
      "죟": 3468,
      "죠": 3469,
      "죡": 3470,
      "죢": 3471,
      "죣": 3472,
      "죤": 3473,
      "죧": 3474,
      "죨": 3475,
      "죪": 3476,
      "죰": 3477,
      "죱": 3478,
      "죳": 3479,
      "죵": 3480,
      "죶": 3481,
      "죻": 3482,
      "주": 3483,
      "죽": 3484,
      "준": 3485,
      "줁": 3486,
      "줂": 3487,
      "줃": 3488,
      "줄": 3489,
      "줅": 3490,
      "줆": 3491,
      "줈": 3492,
      "줋": 3493,
      "줌": 3494,
      "줍": 3495,
      "줏": 3496,
      "줐": 3497,
      "중": 3498,
      "줒": 3499,
      "줕": 3500,
      "줖": 3501,
      "줗": 3502,
      "줘": 3503,
      "줙": 3504,
      "줜": 3505,
      "줝": 3506,
      "줫": 3507,
      "줬": 3508,
      "줭": 3509,
      "줴": 3510,
      "줸": 3511,
      "쥃": 3512,
      "쥈": 3513,
      "쥉": 3514,
      "쥊": 3515,
      "쥌": 3516,
      "쥏": 3517,
      "쥐": 3518,
      "쥑": 3519,
      "쥒": 3520,
      "쥓": 3521,
      "쥔": 3522,
      "쥘": 3523,
      "쥠": 3524,
      "쥡": 3525,
      "쥢": 3526,
      "쥣": 3527,
      "쥤": 3528,
      "쥥": 3529,
      "쥬": 3530,
      "쥭": 3531,
      "쥰": 3532,
      "쥱": 3533,
      "쥲": 3534,
      "쥴": 3535,
      "쥶": 3536,
      "쥷": 3537,
      "쥼": 3538,
      "쥽": 3539,
      "쥿": 3540,
      "즁": 3541,
      "즈": 3542,
      "즉": 3543,
      "즌": 3544,
      "즐": 3545,
      "즑": 3546,
      "즘": 3547,
      "즙": 3548,
      "즛": 3549,
      "증": 3550,
      "즞": 3551,
      "즣": 3552,
      "즤": 3553,
      "즰": 3554,
      "즶": 3555,
      "즼": 3556,
      "지": 3557,
      "직": 3558,
      "짂": 3559,
      "진": 3560,
      "짆": 3561,
      "짇": 3562,
      "질": 3563,
      "짉": 3564,
      "짊": 3565,
      "짋": 3566,
      "짏": 3567,
      "짐": 3568,
      "집": 3569,
      "짒": 3570,
      "짓": 3571,
      "짔": 3572,
      "징": 3573,
      "짖": 3574,
      "짙": 3575,
      "짚": 3576,
      "짛": 3577,
      "짜": 3578,
      "짝": 3579,
      "짞": 3580,
      "짟": 3581,
      "짠": 3582,
      "짡": 3583,
      "짢": 3584,
      "짣": 3585,
      "짤": 3586,
      "짥": 3587,
      "짦": 3588,
      "짧": 3589,
      "짫": 3590,
      "짬": 3591,
      "짭": 3592,
      "짮": 3593,
      "짯": 3594,
      "짰": 3595,
      "짱": 3596,
      "짲": 3597,
      "짳": 3598,
      "짴": 3599,
      "짵": 3600,
      "짶": 3601,
      "짷": 3602,
      "째": 3603,
      "짹": 3604,
      "짼": 3605,
      "짾": 3606,
      "짿": 3607,
      "쨀": 3608,
      "쨁": 3609,
      "쨂": 3610,
      "쨅": 3611,
      "쨆": 3612,
      "쨇": 3613,
      "쨈": 3614,
      "쨉": 3615,
      "쨋": 3616,
      "쨌": 3617,
      "쨍": 3618,
      "쨎": 3619,
      "쨏": 3620,
      "쨑": 3621,
      "쨒": 3622,
      "쨓": 3623,
      "쨔": 3624,
      "쨖": 3625,
      "쨘": 3626,
      "쨜": 3627,
      "쨞": 3628,
      "쨠": 3629,
      "쨢": 3630,
      "쨤": 3631,
      "쨦": 3632,
      "쨧": 3633,
      "쨨": 3634,
      "쨩": 3635,
      "쨪": 3636,
      "쨫": 3637,
      "쨰": 3638,
      "쨴": 3639,
      "쨻": 3640,
      "쨿": 3641,
      "쩁": 3642,
      "쩄": 3643,
      "쩆": 3644,
      "쩇": 3645,
      "쩉": 3646,
      "쩌": 3647,
      "쩍": 3648,
      "쩎": 3649,
      "쩏": 3650,
      "쩐": 3651,
      "쩑": 3652,
      "쩒": 3653,
      "쩓": 3654,
      "쩔": 3655,
      "쩖": 3656,
      "쩗": 3657,
      "쩘": 3658,
      "쩙": 3659,
      "쩚": 3660,
      "쩛": 3661,
      "쩜": 3662,
      "쩝": 3663,
      "쩟": 3664,
      "쩠": 3665,
      "쩡": 3666,
      "쩢": 3667,
      "쩤": 3668,
      "쩨": 3669,
      "쩫": 3670,
      "쩬": 3671,
      "쩯": 3672,
      "쩰": 3673,
      "쩳": 3674,
      "쩴": 3675,
      "쩸": 3676,
      "쩽": 3677,
      "쩾": 3678,
      "쪂": 3679,
      "쪄": 3680,
      "쪅": 3681,
      "쪇": 3682,
      "쪈": 3683,
      "쪊": 3684,
      "쪗": 3685,
      "쪘": 3686,
      "쪙": 3687,
      "쪬": 3688,
      "쪱": 3689,
      "쪳": 3690,
      "쪵": 3691,
      "쪸": 3692,
      "쪹": 3693,
      "쪻": 3694,
      "쪼": 3695,
      "쪽": 3696,
      "쪾": 3697,
      "쫀": 3698,
      "쫃": 3699,
      "쫄": 3700,
      "쫅": 3701,
      "쫌": 3702,
      "쫍": 3703,
      "쫏": 3704,
      "쫑": 3705,
      "쫒": 3706,
      "쫓": 3707,
      "쫖": 3708,
      "쫗": 3709,
      "쫘": 3710,
      "쫙": 3711,
      "쫚": 3712,
      "쫛": 3713,
      "쫜": 3714,
      "쫞": 3715,
      "쫤": 3716,
      "쫨": 3717,
      "쫩": 3718,
      "쫭": 3719,
      "쫱": 3720,
      "쫲": 3721,
      "쫴": 3722,
      "쫾": 3723,
      "쬀": 3724,
      "쬄": 3725,
      "쬈": 3726,
      "쬋": 3727,
      "쬎": 3728,
      "쬐": 3729,
      "쬑": 3730,
      "쬔": 3731,
      "쬘": 3732,
      "쬠": 3733,
      "쬡": 3734,
      "쬣": 3735,
      "쬤": 3736,
      "쬦": 3737,
      "쬧": 3738,
      "쬪": 3739,
      "쬫": 3740,
      "쬬": 3741,
      "쬭": 3742,
      "쬮": 3743,
      "쬰": 3744,
      "쬲": 3745,
      "쬶": 3746,
      "쬷": 3747,
      "쬼": 3748,
      "쭁": 3749,
      "쭃": 3750,
      "쭈": 3751,
      "쭉": 3752,
      "쭌": 3753,
      "쭐": 3754,
      "쭕": 3755,
      "쭗": 3756,
      "쭘": 3757,
      "쭙": 3758,
      "쭛": 3759,
      "쭝": 3760,
      "쭟": 3761,
      "쭤": 3762,
      "쭦": 3763,
      "쭪": 3764,
      "쭭": 3765,
      "쭷": 3766,
      "쭸": 3767,
      "쭹": 3768,
      "쭻": 3769,
      "쭼": 3770,
      "쭿": 3771,
      "쮀": 3772,
      "쮅": 3773,
      "쮇": 3774,
      "쮉": 3775,
      "쮊": 3776,
      "쮋": 3777,
      "쮌": 3778,
      "쮏": 3779,
      "쮑": 3780,
      "쮓": 3781,
      "쮔": 3782,
      "쮖": 3783,
      "쮙": 3784,
      "쮚": 3785,
      "쮛": 3786,
      "쮜": 3787,
      "쮝": 3788,
      "쮞": 3789,
      "쮟": 3790,
      "쮠": 3791,
      "쮡": 3792,
      "쮤": 3793,
      "쮦": 3794,
      "쮩": 3795,
      "쮫": 3796,
      "쮱": 3797,
      "쮸": 3798,
      "쮺": 3799,
      "쯂": 3800,
      "쯅": 3801,
      "쯇": 3802,
      "쯋": 3803,
      "쯍": 3804,
      "쯔": 3805,
      "쯕": 3806,
      "쯘": 3807,
      "쯚": 3808,
      "쯜": 3809,
      "쯠": 3810,
      "쯤": 3811,
      "쯥": 3812,
      "쯧": 3813,
      "쯩": 3814,
      "쯪": 3815,
      "쯫": 3816,
      "쯰": 3817,
      "쯲": 3818,
      "찌": 3819,
      "찍": 3820,
      "찎": 3821,
      "찐": 3822,
      "찓": 3823,
      "찔": 3824,
      "찖": 3825,
      "찗": 3826,
      "찘": 3827,
      "찜": 3828,
      "찝": 3829,
      "찟": 3830,
      "찠": 3831,
      "찡": 3832,
      "찢": 3833,
      "찣": 3834,
      "찦": 3835,
      "찧": 3836,
      "차": 3837,
      "착": 3838,
      "찫": 3839,
      "찬": 3840,
      "찮": 3841,
      "찯": 3842,
      "찰": 3843,
      "찱": 3844,
      "찶": 3845,
      "참": 3846,
      "찹": 3847,
      "찻": 3848,
      "찼": 3849,
      "창": 3850,
      "찾": 3851,
      "찿": 3852,
      "챁": 3853,
      "챂": 3854,
      "챃": 3855,
      "채": 3856,
      "책": 3857,
      "챇": 3858,
      "챈": 3859,
      "챌": 3860,
      "챏": 3861,
      "챔": 3862,
      "챕": 3863,
      "챗": 3864,
      "챘": 3865,
      "챙": 3866,
      "챝": 3867,
      "챠": 3868,
      "챡": 3869,
      "챤": 3870,
      "챦": 3871,
      "챨": 3872,
      "챰": 3873,
      "챱": 3874,
      "챳": 3875,
      "챴": 3876,
      "챵": 3877,
      "챶": 3878,
      "챸": 3879,
      "챹": 3880,
      "챻": 3881,
      "챼": 3882,
      "챽": 3883,
      "첀": 3884,
      "첂": 3885,
      "첄": 3886,
      "첅": 3887,
      "첆": 3888,
      "첇": 3889,
      "첉": 3890,
      "첊": 3891,
      "첐": 3892,
      "첔": 3893,
      "처": 3894,
      "척": 3895,
      "첚": 3896,
      "첛": 3897,
      "천": 3898,
      "첝": 3899,
      "첟": 3900,
      "철": 3901,
      "첨": 3902,
      "첩": 3903,
      "첫": 3904,
      "첬": 3905,
      "청": 3906,
      "첮": 3907,
      "첯": 3908,
      "첰": 3909,
      "첱": 3910,
      "첳": 3911,
      "체": 3912,
      "첵": 3913,
      "첸": 3914,
      "첺": 3915,
      "첼": 3916,
      "첿": 3917,
      "쳃": 3918,
      "쳄": 3919,
      "쳅": 3920,
      "쳇": 3921,
      "쳉": 3922,
      "쳌": 3923,
      "쳏": 3924,
      "쳐": 3925,
      "쳑": 3926,
      "쳔": 3927,
      "쳕": 3928,
      "쳖": 3929,
      "쳗": 3930,
      "쳘": 3931,
      "쳠": 3932,
      "쳡": 3933,
      "쳣": 3934,
      "쳤": 3935,
      "쳥": 3936,
      "쳪": 3937,
      "쳬": 3938,
      "쳰": 3939,
      "쳴": 3940,
      "촅": 3941,
      "초": 3942,
      "촉": 3943,
      "촌": 3944,
      "촍": 3945,
      "촐": 3946,
      "촔": 3947,
      "촘": 3948,
      "촙": 3949,
      "촛": 3950,
      "총": 3951,
      "촟": 3952,
      "촡": 3953,
      "촢": 3954,
      "촣": 3955,
      "촤": 3956,
      "촥": 3957,
      "촦": 3958,
      "촨": 3959,
      "촩": 3960,
      "촪": 3961,
      "촫": 3962,
      "촬": 3963,
      "촭": 3964,
      "촮": 3965,
      "촯": 3966,
      "촱": 3967,
      "촴": 3968,
      "촵": 3969,
      "촶": 3970,
      "촸": 3971,
      "촹": 3972,
      "촺": 3973,
      "촻": 3974,
      "촿": 3975,
      "쵀": 3976,
      "쵃": 3977,
      "쵄": 3978,
      "쵇": 3979,
      "쵏": 3980,
      "쵓": 3981,
      "쵔": 3982,
      "쵕": 3983,
      "최": 3984,
      "쵝": 3985,
      "쵠": 3986,
      "쵡": 3987,
      "쵢": 3988,
      "쵣": 3989,
      "쵤": 3990,
      "쵦": 3991,
      "쵧": 3992,
      "쵪": 3993,
      "쵬": 3994,
      "쵭": 3995,
      "쵯": 3996,
      "쵱": 3997,
      "쵶": 3998,
      "쵷": 3999,
      "쵸": 4000,
      "쵹": 4001,
      "쵻": 4002,
      "쵼": 4003,
      "춀": 4004,
      "춁": 4005,
      "춅": 4006,
      "춈": 4007,
      "춉": 4008,
      "춍": 4009,
      "추": 4010,
      "축": 4011,
      "춘": 4012,
      "춚": 4013,
      "춛": 4014,
      "출": 4015,
      "춟": 4016,
      "춠": 4017,
      "춢": 4018,
      "춣": 4019,
      "춤": 4020,
      "춥": 4021,
      "춧": 4022,
      "충": 4023,
      "춪": 4024,
      "춫": 4025,
      "춭": 4026,
      "춮": 4027,
      "춰": 4028,
      "춱": 4029,
      "춴": 4030,
      "춸": 4031,
      "췃": 4032,
      "췄": 4033,
      "췅": 4034,
      "췆": 4035,
      "췇": 4036,
      "췌": 4037,
      "췍": 4038,
      "췐": 4039,
      "췕": 4040,
      "췡": 4041,
      "췢": 4042,
      "췤": 4043,
      "취": 4044,
      "췩": 4045,
      "췪": 4046,
      "췬": 4047,
      "췰": 4048,
      "췲": 4049,
      "췷": 4050,
      "췸": 4051,
      "췹": 4052,
      "췻": 4053,
      "췽": 4054,
      "츃": 4055,
      "츄": 4056,
      "츅": 4057,
      "츈": 4058,
      "츉": 4059,
      "츌": 4060,
      "츎": 4061,
      "츔": 4062,
      "츕": 4063,
      "츗": 4064,
      "츘": 4065,
      "츙": 4066,
      "츛": 4067,
      "츜": 4068,
      "츞": 4069,
      "츠": 4070,
      "측": 4071,
      "츤": 4072,
      "츥": 4073,
      "츨": 4074,
      "츩": 4075,
      "츬": 4076,
      "츰": 4077,
      "츱": 4078,
      "츳": 4079,
      "층": 4080,
      "츹": 4081,
      "츼": 4082,
      "칊": 4083,
      "칎": 4084,
      "칑": 4085,
      "칒": 4086,
      "칗": 4087,
      "치": 4088,
      "칙": 4089,
      "친": 4090,
      "칝": 4091,
      "칞": 4092,
      "칟": 4093,
      "칠": 4094,
      "칡": 4095,
      "칢": 4096,
      "칣": 4097,
      "칤": 4098,
      "칦": 4099,
      "침": 4100,
      "칩": 4101,
      "칫": 4102,
      "칬": 4103,
      "칭": 4104,
      "칮": 4105,
      "칱": 4106,
      "칲": 4107,
      "칳": 4108,
      "카": 4109,
      "칵": 4110,
      "칸": 4111,
      "칼": 4112,
      "캄": 4113,
      "캅": 4114,
      "캇": 4115,
      "캈": 4116,
      "캉": 4117,
      "캌": 4118,
      "캐": 4119,
      "캑": 4120,
      "캔": 4121,
      "캗": 4122,
      "캘": 4123,
      "캠": 4124,
      "캡": 4125,
      "캣": 4126,
      "캤": 4127,
      "캥": 4128,
      "캪": 4129,
      "캬": 4130,
      "캭": 4131,
      "캰": 4132,
      "캴": 4133,
      "캶": 4134,
      "캻": 4135,
      "캼": 4136,
      "캿": 4137,
      "컁": 4138,
      "컇": 4139,
      "컈": 4140,
      "컑": 4141,
      "컒": 4142,
      "컖": 4143,
      "컗": 4144,
      "컘": 4145,
      "컡": 4146,
      "커": 4147,
      "컥": 4148,
      "컨": 4149,
      "컫": 4150,
      "컬": 4151,
      "컴": 4152,
      "컵": 4153,
      "컷": 4154,
      "컸": 4155,
      "컹": 4156,
      "컽": 4157,
      "컾": 4158,
      "케": 4159,
      "켁": 4160,
      "켂": 4161,
      "켄": 4162,
      "켇": 4163,
      "켈": 4164,
      "켍": 4165,
      "켐": 4166,
      "켑": 4167,
      "켓": 4168,
      "켔": 4169,
      "켕": 4170,
      "켖": 4171,
      "켗": 4172,
      "켙": 4173,
      "켚": 4174,
      "켜": 4175,
      "켝": 4176,
      "켠": 4177,
      "켣": 4178,
      "켤": 4179,
      "켦": 4180,
      "켨": 4181,
      "켬": 4182,
      "켭": 4183,
      "켯": 4184,
      "켰": 4185,
      "켱": 4186,
      "켲": 4187,
      "켳": 4188,
      "켵": 4189,
      "켸": 4190,
      "콅": 4191,
      "콆": 4192,
      "콊": 4193,
      "콋": 4194,
      "콍": 4195,
      "콎": 4196,
      "코": 4197,
      "콕": 4198,
      "콗": 4199,
      "콘": 4200,
      "콛": 4201,
      "콜": 4202,
      "콟": 4203,
      "콤": 4204,
      "콥": 4205,
      "콧": 4206,
      "콩": 4207,
      "콭": 4208,
      "콰": 4209,
      "콱": 4210,
      "콲": 4211,
      "콴": 4212,
      "콷": 4213,
      "콸": 4214,
      "콼": 4215,
      "쾀": 4216,
      "쾃": 4217,
      "쾄": 4218,
      "쾅": 4219,
      "쾌": 4220,
      "쾍": 4221,
      "쾐": 4222,
      "쾓": 4223,
      "쾖": 4224,
      "쾡": 4225,
      "쾨": 4226,
      "쾪": 4227,
      "쾫": 4228,
      "쾬": 4229,
      "쾰": 4230,
      "쾱": 4231,
      "쾻": 4232,
      "쾿": 4233,
      "쿂": 4234,
      "쿄": 4235,
      "쿈": 4236,
      "쿋": 4237,
      "쿌": 4238,
      "쿞": 4239,
      "쿠": 4240,
      "쿡": 4241,
      "쿢": 4242,
      "쿤": 4243,
      "쿨": 4244,
      "쿪": 4245,
      "쿫": 4246,
      "쿮": 4247,
      "쿰": 4248,
      "쿱": 4249,
      "쿳": 4250,
      "쿴": 4251,
      "쿵": 4252,
      "쿶": 4253,
      "쿸": 4254,
      "쿼": 4255,
      "쿽": 4256,
      "쿿": 4257,
      "퀀": 4258,
      "퀂": 4259,
      "퀄": 4260,
      "퀇": 4261,
      "퀈": 4262,
      "퀉": 4263,
      "퀋": 4264,
      "퀌": 4265,
      "퀏": 4266,
      "퀐": 4267,
      "퀑": 4268,
      "퀘": 4269,
      "퀙": 4270,
      "퀛": 4271,
      "퀜": 4272,
      "퀠": 4273,
      "퀤": 4274,
      "퀨": 4275,
      "퀩": 4276,
      "퀬": 4277,
      "퀭": 4278,
      "퀲": 4279,
      "퀴": 4280,
      "퀵": 4281,
      "퀸": 4282,
      "퀼": 4283,
      "큁": 4284,
      "큄": 4285,
      "큅": 4286,
      "큇": 4287,
      "큉": 4288,
      "큌": 4289,
      "큐": 4290,
      "큑": 4291,
      "큒": 4292,
      "큓": 4293,
      "큔": 4294,
      "큕": 4295,
      "큖": 4296,
      "큗": 4297,
      "큘": 4298,
      "큙": 4299,
      "큛": 4300,
      "큞": 4301,
      "큟": 4302,
      "큠": 4303,
      "큡": 4304,
      "큢": 4305,
      "큣": 4306,
      "큤": 4307,
      "큥": 4308,
      "큦": 4309,
      "큧": 4310,
      "큨": 4311,
      "큩": 4312,
      "큪": 4313,
      "큫": 4314,
      "크": 4315,
      "큭": 4316,
      "큰": 4317,
      "큱": 4318,
      "큲": 4319,
      "클": 4320,
      "큶": 4321,
      "큺": 4322,
      "큼": 4323,
      "큽": 4324,
      "큿": 4325,
      "킁": 4326,
      "킈": 4327,
      "킋": 4328,
      "킌": 4329,
      "킕": 4330,
      "킙": 4331,
      "킝": 4332,
      "킡": 4333,
      "키": 4334,
      "킥": 4335,
      "킨": 4336,
      "킬": 4337,
      "킱": 4338,
      "킳": 4339,
      "킴": 4340,
      "킵": 4341,
      "킶": 4342,
      "킷": 4343,
      "킸": 4344,
      "킹": 4345,
      "킻": 4346,
      "킿": 4347,
      "타": 4348,
      "탁": 4349,
      "탄": 4350,
      "탅": 4351,
      "탆": 4352,
      "탈": 4353,
      "탉": 4354,
      "탌": 4355,
      "탎": 4356,
      "탏": 4357,
      "탐": 4358,
      "탑": 4359,
      "탒": 4360,
      "탓": 4361,
      "탔": 4362,
      "탕": 4363,
      "탖": 4364,
      "탗": 4365,
      "탘": 4366,
      "탙": 4367,
      "탚": 4368,
      "탛": 4369,
      "태": 4370,
      "택": 4371,
      "탠": 4372,
      "탡": 4373,
      "탣": 4374,
      "탤": 4375,
      "탦": 4376,
      "탬": 4377,
      "탭": 4378,
      "탮": 4379,
      "탯": 4380,
      "탰": 4381,
      "탱": 4382,
      "탶": 4383,
      "탸": 4384,
      "탹": 4385,
      "탼": 4386,
      "턀": 4387,
      "턅": 4388,
      "턉": 4389,
      "턍": 4390,
      "턔": 4391,
      "턕": 4392,
      "턖": 4393,
      "턠": 4394,
      "턡": 4395,
      "턣": 4396,
      "턫": 4397,
      "터": 4398,
      "턱": 4399,
      "턴": 4400,
      "털": 4401,
      "턹": 4402,
      "턻": 4403,
      "턿": 4404,
      "텀": 4405,
      "텁": 4406,
      "텂": 4407,
      "텃": 4408,
      "텄": 4409,
      "텅": 4410,
      "텆": 4411,
      "텇": 4412,
      "텈": 4413,
      "텉": 4414,
      "텊": 4415,
      "텋": 4416,
      "테": 4417,
      "텍": 4418,
      "텎": 4419,
      "텐": 4420,
      "텔": 4421,
      "텘": 4422,
      "템": 4423,
      "텝": 4424,
      "텞": 4425,
      "텟": 4426,
      "텡": 4427,
      "텢": 4428,
      "텥": 4429,
      "텦": 4430,
      "텨": 4431,
      "텩": 4432,
      "텬": 4433,
      "텮": 4434,
      "텯": 4435,
      "텰": 4436,
      "텲": 4437,
      "텶": 4438,
      "텹": 4439,
      "텻": 4440,
      "텼": 4441,
      "텽": 4442,
      "톃": 4443,
      "톄": 4444,
      "톈": 4445,
      "톉": 4446,
      "톋": 4447,
      "톌": 4448,
      "톏": 4449,
      "톒": 4450,
      "톓": 4451,
      "톙": 4452,
      "톛": 4453,
      "톟": 4454,
      "토": 4455,
      "톡": 4456,
      "톢": 4457,
      "톣": 4458,
      "톤": 4459,
      "톧": 4460,
      "톨": 4461,
      "톩": 4462,
      "톰": 4463,
      "톱": 4464,
      "톳": 4465,
      "통": 4466,
      "톷": 4467,
      "톹": 4468,
      "톺": 4469,
      "톼": 4470,
      "퇀": 4471,
      "퇂": 4472,
      "퇄": 4473,
      "퇘": 4474,
      "퇟": 4475,
      "퇠": 4476,
      "퇨": 4477,
      "퇫": 4478,
      "퇬": 4479,
      "퇯": 4480,
      "퇱": 4481,
      "퇳": 4482,
      "퇴": 4483,
      "퇶": 4484,
      "퇸": 4485,
      "퇻": 4486,
      "퇼": 4487,
      "퇽": 4488,
      "퇿": 4489,
      "툁": 4490,
      "툂": 4491,
      "툃": 4492,
      "툅": 4493,
      "툇": 4494,
      "툈": 4495,
      "툉": 4496,
      "툍": 4497,
      "툐": 4498,
      "툘": 4499,
      "툜": 4500,
      "툞": 4501,
      "툠": 4502,
      "툡": 4503,
      "툥": 4504,
      "툪": 4505,
      "툫": 4506,
      "투": 4507,
      "툭": 4508,
      "툰": 4509,
      "툱": 4510,
      "툴": 4511,
      "툶": 4512,
      "툼": 4513,
      "툽": 4514,
      "툿": 4515,
      "퉁": 4516,
      "퉆": 4517,
      "퉇": 4518,
      "퉈": 4519,
      "퉍": 4520,
      "퉓": 4521,
      "퉗": 4522,
      "퉜": 4523,
      "퉢": 4524,
      "퉣": 4525,
      "퉤": 4526,
      "퉥": 4527,
      "퉬": 4528,
      "퉴": 4529,
      "퉶": 4530,
      "퉷": 4531,
      "퉹": 4532,
      "퉿": 4533,
      "튀": 4534,
      "튁": 4535,
      "튄": 4536,
      "튈": 4537,
      "튍": 4538,
      "튐": 4539,
      "튑": 4540,
      "튓": 4541,
      "튔": 4542,
      "튕": 4543,
      "튜": 4544,
      "튝": 4545,
      "튠": 4546,
      "튤": 4547,
      "튫": 4548,
      "튬": 4549,
      "튭": 4550,
      "튮": 4551,
      "튱": 4552,
      "트": 4553,
      "특": 4554,
      "튼": 4555,
      "튿": 4556,
      "틀": 4557,
      "틂": 4558,
      "틃": 4559,
      "틄": 4560,
      "틈": 4561,
      "틉": 4562,
      "틋": 4563,
      "틌": 4564,
      "틍": 4565,
      "틎": 4566,
      "틐": 4567,
      "틑": 4568,
      "틒": 4569,
      "틓": 4570,
      "틔": 4571,
      "틕": 4572,
      "틗": 4573,
      "틘": 4574,
      "틜": 4575,
      "틝": 4576,
      "틤": 4577,
      "틥": 4578,
      "틧": 4579,
      "틩": 4580,
      "틪": 4581,
      "틭": 4582,
      "티": 4583,
      "틱": 4584,
      "틴": 4585,
      "틸": 4586,
      "틿": 4587,
      "팀": 4588,
      "팁": 4589,
      "팃": 4590,
      "팅": 4591,
      "팇": 4592,
      "팉": 4593,
      "파": 4594,
      "팍": 4595,
      "팎": 4596,
      "판": 4597,
      "팑": 4598,
      "팒": 4599,
      "팓": 4600,
      "팔": 4601,
      "팖": 4602,
      "팚": 4603,
      "팛": 4604,
      "팜": 4605,
      "팝": 4606,
      "팟": 4607,
      "팠": 4608,
      "팡": 4609,
      "팤": 4610,
      "팥": 4611,
      "팦": 4612,
      "패": 4613,
      "팩": 4614,
      "팬": 4615,
      "팭": 4616,
      "팯": 4617,
      "팰": 4618,
      "팱": 4619,
      "팸": 4620,
      "팹": 4621,
      "팻": 4622,
      "팼": 4623,
      "팽": 4624,
      "팾": 4625,
      "팿": 4626,
      "퍁": 4627,
      "퍂": 4628,
      "퍄": 4629,
      "퍅": 4630,
      "퍆": 4631,
      "퍈": 4632,
      "퍊": 4633,
      "퍌": 4634,
      "퍎": 4635,
      "퍑": 4636,
      "퍙": 4637,
      "퍠": 4638,
      "퍮": 4639,
      "퍳": 4640,
      "퍵": 4641,
      "퍼": 4642,
      "퍽": 4643,
      "펀": 4644,
      "펃": 4645,
      "펄": 4646,
      "펈": 4647,
      "펉": 4648,
      "펊": 4649,
      "펌": 4650,
      "펍": 4651,
      "펏": 4652,
      "펐": 4653,
      "펑": 4654,
      "펓": 4655,
      "펕": 4656,
      "페": 4657,
      "펙": 4658,
      "펚": 4659,
      "펜": 4660,
      "펟": 4661,
      "펠": 4662,
      "펧": 4663,
      "펨": 4664,
      "펩": 4665,
      "펫": 4666,
      "펭": 4667,
      "펯": 4668,
      "펱": 4669,
      "펴": 4670,
      "펵": 4671,
      "편": 4672,
      "펺": 4673,
      "펼": 4674,
      "폃": 4675,
      "폄": 4676,
      "폅": 4677,
      "폇": 4678,
      "폈": 4679,
      "평": 4680,
      "폊": 4681,
      "폋": 4682,
      "폐": 4683,
      "폒": 4684,
      "폓": 4685,
      "폔": 4686,
      "폖": 4687,
      "폘": 4688,
      "폠": 4689,
      "폡": 4690,
      "폣": 4691,
      "폨": 4692,
      "포": 4693,
      "폭": 4694,
      "폮": 4695,
      "폰": 4696,
      "폳": 4697,
      "폴": 4698,
      "폼": 4699,
      "폽": 4700,
      "폿": 4701,
      "퐁": 4702,
      "퐃": 4703,
      "퐄": 4704,
      "퐅": 4705,
      "퐆": 4706,
      "퐈": 4707,
      "퐉": 4708,
      "퐌": 4709,
      "퐐": 4710,
      "퐙": 4711,
      "퐝": 4712,
      "퐹": 4713,
      "퐾": 4714,
      "푀": 4715,
      "푁": 4716,
      "푄": 4717,
      "푈": 4718,
      "푓": 4719,
      "푕": 4720,
      "푗": 4721,
      "표": 4722,
      "푝": 4723,
      "푠": 4724,
      "푤": 4725,
      "푭": 4726,
      "푯": 4727,
      "푱": 4728,
      "푲": 4729,
      "푴": 4730,
      "푶": 4731,
      "푸": 4732,
      "푹": 4733,
      "푼": 4734,
      "푿": 4735,
      "풀": 4736,
      "풂": 4737,
      "풄": 4738,
      "품": 4739,
      "풉": 4740,
      "풋": 4741,
      "풍": 4742,
      "풑": 4743,
      "풓": 4744,
      "풔": 4745,
      "풘": 4746,
      "풛": 4747,
      "풩": 4748,
      "풰": 4749,
      "풴": 4750,
      "풹": 4751,
      "퓉": 4752,
      "퓌": 4753,
      "퓐": 4754,
      "퓔": 4755,
      "퓘": 4756,
      "퓙": 4757,
      "퓜": 4758,
      "퓟": 4759,
      "퓡": 4760,
      "퓨": 4761,
      "퓬": 4762,
      "퓮": 4763,
      "퓰": 4764,
      "퓶": 4765,
      "퓷": 4766,
      "퓸": 4767,
      "퓻": 4768,
      "퓼": 4769,
      "퓽": 4770,
      "픁": 4771,
      "프": 4772,
      "픅": 4773,
      "픈": 4774,
      "플": 4775,
      "픐": 4776,
      "픔": 4777,
      "픕": 4778,
      "픗": 4779,
      "픙": 4780,
      "픛": 4781,
      "픞": 4782,
      "픟": 4783,
      "픠": 4784,
      "픢": 4785,
      "픤": 4786,
      "픦": 4787,
      "픮": 4788,
      "픲": 4789,
      "픳": 4790,
      "픴": 4791,
      "픵": 4792,
      "픶": 4793,
      "픸": 4794,
      "픹": 4795,
      "피": 4796,
      "픽": 4797,
      "픾": 4798,
      "핀": 4799,
      "핃": 4800,
      "필": 4801,
      "핌": 4802,
      "핍": 4803,
      "핎": 4804,
      "핏": 4805,
      "핐": 4806,
      "핑": 4807,
      "핔": 4808,
      "핕": 4809,
      "핖": 4810,
      "하": 4811,
      "학": 4812,
      "핚": 4813,
      "핛": 4814,
      "한": 4815,
      "핝": 4816,
      "핞": 4817,
      "핟": 4818,
      "할": 4819,
      "핡": 4820,
      "핤": 4821,
      "핥": 4822,
      "핧": 4823,
      "함": 4824,
      "합": 4825,
      "핫": 4826,
      "핬": 4827,
      "항": 4828,
      "핮": 4829,
      "핱": 4830,
      "핳": 4831,
      "해": 4832,
      "핵": 4833,
      "핶": 4834,
      "핸": 4835,
      "핺": 4836,
      "핻": 4837,
      "핼": 4838,
      "햁": 4839,
      "햄": 4840,
      "햅": 4841,
      "햇": 4842,
      "했": 4843,
      "행": 4844,
      "햊": 4845,
      "햋": 4846,
      "햌": 4847,
      "햎": 4848,
      "햏": 4849,
      "햐": 4850,
      "햑": 4851,
      "햔": 4852,
      "햗": 4853,
      "햘": 4854,
      "햙": 4855,
      "햝": 4856,
      "햠": 4857,
      "햡": 4858,
      "햢": 4859,
      "햣": 4860,
      "햤": 4861,
      "향": 4862,
      "햫": 4863,
      "햬": 4864,
      "햵": 4865,
      "햻": 4866,
      "헀": 4867,
      "헂": 4868,
      "허": 4869,
      "헉": 4870,
      "헊": 4871,
      "헌": 4872,
      "헐": 4873,
      "헒": 4874,
      "험": 4875,
      "헙": 4876,
      "헛": 4877,
      "헜": 4878,
      "헝": 4879,
      "헠": 4880,
      "헤": 4881,
      "헥": 4882,
      "헦": 4883,
      "헨": 4884,
      "헬": 4885,
      "헰": 4886,
      "헴": 4887,
      "헵": 4888,
      "헷": 4889,
      "헸": 4890,
      "헹": 4891,
      "헺": 4892,
      "헽": 4893,
      "헿": 4894,
      "혀": 4895,
      "혁": 4896,
      "현": 4897,
      "혈": 4898,
      "혉": 4899,
      "혐": 4900,
      "협": 4901,
      "혓": 4902,
      "혔": 4903,
      "형": 4904,
      "혖": 4905,
      "혗": 4906,
      "혚": 4907,
      "혜": 4908,
      "혝": 4909,
      "혞": 4910,
      "혟": 4911,
      "혠": 4912,
      "혣": 4913,
      "혤": 4914,
      "혩": 4915,
      "혫": 4916,
      "혬": 4917,
      "혭": 4918,
      "혯": 4919,
      "혰": 4920,
      "혱": 4921,
      "혴": 4922,
      "혵": 4923,
      "호": 4924,
      "혹": 4925,
      "혼": 4926,
      "혿": 4927,
      "홀": 4928,
      "홁": 4929,
      "홅": 4930,
      "홇": 4931,
      "홈": 4932,
      "홉": 4933,
      "홋": 4934,
      "홍": 4935,
      "홐": 4936,
      "홑": 4937,
      "홒": 4938,
      "화": 4939,
      "확": 4940,
      "환": 4941,
      "홛": 4942,
      "활": 4943,
      "홢": 4944,
      "홣": 4945,
      "홤": 4946,
      "홥": 4947,
      "홧": 4948,
      "황": 4949,
      "홯": 4950,
      "홰": 4951,
      "홱": 4952,
      "홴": 4953,
      "홵": 4954,
      "홷": 4955,
      "홺": 4956,
      "홽": 4957,
      "횁": 4958,
      "횃": 4959,
      "횄": 4960,
      "횅": 4961,
      "회": 4962,
      "획": 4963,
      "횐": 4964,
      "횔": 4965,
      "횝": 4966,
      "횟": 4967,
      "횡": 4968,
      "효": 4969,
      "횩": 4970,
      "횬": 4971,
      "횰": 4972,
      "횴": 4973,
      "횸": 4974,
      "횹": 4975,
      "횺": 4976,
      "횻": 4977,
      "횽": 4978,
      "횾": 4979,
      "훀": 4980,
      "후": 4981,
      "훅": 4982,
      "훈": 4983,
      "훌": 4984,
      "훍": 4985,
      "훎": 4986,
      "훑": 4987,
      "훒": 4988,
      "훓": 4989,
      "훔": 4990,
      "훕": 4991,
      "훗": 4992,
      "훘": 4993,
      "훙": 4994,
      "훝": 4995,
      "훟": 4996,
      "훠": 4997,
      "훤": 4998,
      "훦": 4999,
      "훧": 5000,
      "훨": 5001,
      "훮": 5002,
      "훰": 5003,
      "훳": 5004,
      "훵": 5005,
      "훼": 5006,
      "훽": 5007,
      "훾": 5008,
      "휀": 5009,
      "휄": 5010,
      "휆": 5011,
      "휈": 5012,
      "휏": 5013,
      "휑": 5014,
      "휕": 5015,
      "휘": 5016,
      "휙": 5017,
      "휜": 5018,
      "휠": 5019,
      "휡": 5020,
      "휨": 5021,
      "휩": 5022,
      "휫": 5023,
      "휭": 5024,
      "휲": 5025,
      "휴": 5026,
      "휵": 5027,
      "휸": 5028,
      "휺": 5029,
      "휼": 5030,
      "휿": 5031,
      "흃": 5032,
      "흄": 5033,
      "흅": 5034,
      "흇": 5035,
      "흉": 5036,
      "흏": 5037,
      "흐": 5038,
      "흑": 5039,
      "흔": 5040,
      "흖": 5041,
      "흗": 5042,
      "흘": 5043,
      "흙": 5044,
      "흚": 5045,
      "흛": 5046,
      "흜": 5047,
      "흝": 5048,
      "흟": 5049,
      "흠": 5050,
      "흡": 5051,
      "흣": 5052,
      "흥": 5053,
      "흩": 5054,
      "흫": 5055,
      "희": 5056,
      "흭": 5057,
      "흮": 5058,
      "흰": 5059,
      "흴": 5060,
      "흷": 5061,
      "흸": 5062,
      "흼": 5063,
      "흽": 5064,
      "흿": 5065,
      "힁": 5066,
      "히": 5067,
      "힉": 5068,
      "힋": 5069,
      "힌": 5070,
      "힐": 5071,
      "힖": 5072,
      "힘": 5073,
      "힙": 5074,
      "힚": 5075,
      "힛": 5076,
      "힜": 5077,
      "힝": 5078,
      "힞": 5079,
      "힟": 5080,
      "힢": 5081,
      "힣": 5082,
      ".\n": 5083,
      "다.\n": 5084,
      "▁이": 5085,
      "▁있": 5086,
      "으로": 5087,
      "▁그": 5088,
      "▁대": 5089,
      "에서": 5090,
      "▁사": 5091,
      "▁수": 5092,
      "▁것": 5093,
      "▁지": 5094,
      "▁1": 5095,
      "▁한": 5096,
      "했다.\n": 5097,
      "▁전": 5098,
      "▁가": 5099,
      "▁기": 5100,
      "▁아": 5101,
      "▁하": 5102,
      "▁2": 5103,
      "▁시": 5104,
      "▁정": 5105,
      "▁보": 5106,
      "▁자": 5107,
      "▁등": 5108,
      "하는": 5109,
      "▁\"": 5110,
      "▁경": 5111,
      "이다.\n": 5112,
      "▁주": 5113,
      "▁나": 5114,
      "▁일": 5115,
      "▁다": 5116,
      "▁인": 5117,
      "하고": 5118,
      "▁중": 5119,
      "▁제": 5120,
      "▁공": 5121,
      "▁부": 5122,
      "▁'": 5123,
      "▁위": 5124,
      "▁있다.\n": 5125,
      "▁상": 5126,
      "▁내": 5127,
      "▁고": 5128,
      "▁모": 5129,
      "▁말": 5130,
      "▁국": 5131,
      "▁어": 5132,
      "▁관": 5133,
      "▁의": 5134,
      "▁오": 5135,
      "▁않": 5136,
      "▁조": 5137,
      "▁유": 5138,
      "00": 5139,
      "▁없": 5140,
      "▁소": 5141,
      "▁있는": 5142,
      "▁여": 5143,
      "▁선": 5144,
      "▁비": 5145,
      "▁3": 5146,
      "▁마": 5147,
      "▁해": 5148,
      "▁때": 5149,
      "다는": 5150,
      "▁연": 5151,
      "▁서": 5152,
      "▁우": 5153,
      "▁신": 5154,
      "▁\n": 5155,
      "이라": 5156,
      "▁미": 5157,
      "▁만": 5158,
      "▁최": 5159,
      "▁개": 5160,
      "지만": 5161,
      "었다.\n": 5162,
      "▁발": 5163,
      "▁예": 5164,
      "▁안": 5165,
      "▁생": 5166,
      "니다.\n": 5167,
      "들이": 5168,
      "▁통": 5169,
      "▁방": 5170,
      "▁문": 5171,
      "▁구": 5172,
      "▁무": 5173,
      "▁동": 5174,
      "▁세": 5175,
      "▁김": 5176,
      "다고": 5177,
      "▁거": 5178,
      "▁강": 5179,
      "에게": 5180,
      "▁도": 5181,
      "▁바": 5182,
      "다\"": 5183,
      "▁현": 5184,
      "면서": 5185,
      "▁영": 5186,
      "▁성": 5187,
      "▁“": 5188,
      "까지": 5189,
      "다.": 5190,
      "▁실": 5191,
      "▁진": 5192,
      "▁결": 5193,
      "적인": 5194,
      "▁불": 5195,
      "▁4": 5196,
      "▁장": 5197,
      "▁당": 5198,
      "▁교": 5199,
      "▁후": 5200,
      "▁지난": 5201,
      "▁분": 5202,
      "▁5": 5203,
      "▁원": 5204,
      "▁따": 5205,
      "에는": 5206,
      "▁스": 5207,
      "▁반": 5208,
      "부터": 5209,
      "▁되": 5210,
      "▁대한": 5211,
      "▁또": 5212,
      "▁재": 5213,
      "▁노": 5214,
      "▁받": 5215,
      "적으로": 5216,
      "▁계": 5217,
      "하게": 5218,
      "▁남": 5219,
      "고,": 5220,
      "▁특": 5221,
      "▁같": 5222,
      "▁감": 5223,
      "▁차": 5224,
      "▁더": 5225,
      "들은": 5226,
      "▁사람": 5227,
      "▁박": 5228,
      "▁추": 5229,
      "▁올": 5230,
      "▁들": 5231,
      "▁것으로": 5232,
      "▁매": 5233,
      "▁출": 5234,
      "..": 5235,
      "▁알": 5236,
      "▁많": 5237,
      "▁입": 5238,
      "들의": 5239,
      "▁확": 5240,
      "▁20": 5241,
      "▁회": 5242,
      "▁적": 5243,
      "▁위해": 5244,
      "▁것이": 5245,
      "▁단": 5246,
      "▁한국": 5247,
      "▁열": 5248,
      "▁과": 5249,
      "하기": 5250,
      "한다.\n": 5251,
      "▁설": 5252,
      "▁밝": 5253,
      "▁6": 5254,
      "▁두": 5255,
      "▁때문": 5256,
      "▁물": 5257,
      "▁우리": 5258,
      "▁못": 5259,
      "▁역": 5260,
      "▁아니": 5261,
      "▁배": 5262,
      "습니다.\n": 5263,
      "▁건": 5264,
      "▁새": 5265,
      "▁할": 5266,
      "▁학": 5267,
      "▁저": 5268,
      "▁달": 5269,
      "▁행": 5270,
      "▁작": 5271,
      "▁참": 5272,
      "▁그러": 5273,
      "▁말했다.\n": 5274,
      "이라고": 5275,
      "라고": 5276,
      "▁포": 5277,
      "▁금": 5278,
      "▁앞": 5279,
      "▁요": 5280,
      "▁평": 5281,
      "된다.\n": 5282,
      "▁대해": 5283,
      "▁외": 5284,
      "▁함": 5285,
      "▁직": 5286,
      "\"\n": 5287,
      "▁집": 5288,
      "▁민": 5289,
      "▁통해": 5290,
      "▁투": 5291,
      "였다.\n": 5292,
      "▁7": 5293,
      "▁하는": 5294,
      "▁것이다.\n": 5295,
      "았다.\n": 5296,
      "▁10": 5297,
      "▁파": 5298,
      "기를": 5299,
      "하지": 5300,
      "▁프": 5301,
      "▁점": 5302,
      "▁서울": 5303,
      "▁생각": 5304,
      "요.\n": 5305,
      "▁명": 5306,
      "▁청": 5307,
      "▁피": 5308,
      "▁운": 5309,
      "▁19": 5310,
      "▁밝혔": 5311,
      "다\"고": 5312,
      "▁살": 5313,
      "▁양": 5314,
      "▁문제": 5315,
      "▁증": 5316,
      "자는": 5317,
      "▁8": 5318,
      "▁것은": 5319,
      "▁게": 5320,
      "▁했다.\n": 5321,
      "라는": 5322,
      "▁활": 5323,
      "장은": 5324,
      "▁화": 5325,
      "리고": 5326,
      "▁경우": 5327,
      "▁함께": 5328,
      "▁좋": 5329,
      "▁초": 5330,
      "?\n": 5331,
      "▁판": 5332,
      "에서는": 5333,
      "▁높": 5334,
      "▁필": 5335,
      "▁밝혔다.\n": 5336,
      "에도": 5337,
      "▁및": 5338,
      "▁총": 5339,
      "들을": 5340,
      "통령": 5341,
      "됐다.\n": 5342,
      "▁본": 5343,
      "▁자신": 5344,
      "▁미국": 5345,
      "▁목": 5346,
      "▁뒤": 5347,
      "▁검": 5348,
      "▁심": 5349,
      "▁맞": 5350,
      "▁같은": 5351,
      "▁처": 5352,
      "▁정부": 5353,
      "▁변": 5354,
      "으며": 5355,
      "리는": 5356,
      "▁속": 5357,
      "▁임": 5358,
      "▁들어": 5359,
      "▁따라": 5360,
      "이나": 5361,
      "는데": 5362,
      "▁대통령": 5363,
      "▁산": 5364,
      "▁데": 5365,
      "▁9": 5366,
      "▁201": 5367,
      "보다": 5368,
      "▁이어": 5369,
      "▁삼": 5370,
      "▁간": 5371,
      "▁관계": 5372,
      "▁했": 5373,
      "▁손": 5374,
      "▁종": 5375,
      "사를": 5376,
      "▁각": 5377,
      "대로": 5378,
      "리를": 5379,
      "▁이번": 5380,
      "▁네": 5381,
      "장을": 5382,
      "위원": 5383,
      "▁법": 5384,
      "▁돌": 5385,
      "▁대표": 5386,
      "▁그는": 5387,
      "하여": 5388,
      "▁지역": 5389,
      "도록": 5390,
      "▁이상": 5391,
      "▁잘": 5392,
      "▁200": 5393,
      "지는": 5394,
      "▁북": 5395,
      "▁타": 5396,
      "▁드": 5397,
      "▁한다.\n": 5398,
      "▁관련": 5399,
      "되는": 5400,
      "▁체": 5401,
      "▁가능": 5402,
      "▁눈": 5403,
      "▁호": 5404,
      "▁환": 5405,
      "▁치": 5406,
      "▁합": 5407,
      "▁시작": 5408,
      "▁후보": 5409,
      "▁위한": 5410,
      "▁광": 5411,
      "▁다른": 5412,
      "▁근": 5413,
      "▁채": 5414,
      "▁이날": 5415,
      "▁음": 5416,
      "▁아이": 5417,
      "▁중국": 5418,
      "▁때문에": 5419,
      "하며": 5420,
      "▁에": 5421,
      "▁취": 5422,
      "▁걸": 5423,
      "서는": 5424,
      "해야": 5425,
      "▁표": 5426,
      "▁세계": 5427,
      "▁경기": 5428,
      "졌다.\n": 5429,
      "▁독": 5430,
      "▁것을": 5431,
      "▁언": 5432,
      "▁그런": 5433,
      "▁가장": 5434,
      "▁업": 5435,
      "▁사업": 5436,
      "▁사실": 5437,
      "▁그러나": 5438,
      "▁등을": 5439,
      "▁약": 5440,
      "▁필요": 5441,
      "▁크": 5442,
      "▁찾": 5443,
      "▁규": 5444,
      "▁사회": 5445,
      "▁있어": 5446,
      "▁줄": 5447,
      "하면": 5448,
      "▁하나": 5449,
      "▁하지만": 5450,
      "이라는": 5451,
      "억원": 5452,
      "▁논": 5453,
      "▁만들": 5454,
      "▁형": 5455,
      "▁일본": 5456,
      "처럼": 5457,
      "자가": 5458,
      "▁누": 5459,
      "성을": 5460,
      "지를": 5461,
      "▁협": 5462,
      "▁경제": 5463,
      "▁순": 5464,
      "▁충": 5465,
      "▁의원": 5466,
      "▁창": 5467,
      "▁이후": 5468,
      "▁기업": 5469,
      "▁담": 5470,
      "▁번": 5471,
      "장이": 5472,
      "▁큰": 5473,
      "▁있었": 5474,
      "다면": 5475,
      "▁리": 5476,
      "▁승": 5477,
      "▁모두": 5478,
      "▁지원": 5479,
      "기에": 5480,
      "렇게": 5481,
      "▁없는": 5482,
      "▁책": 5483,
      "력을": 5484,
      "지고": 5485,
      "▁프로": 5486,
      "▁상황": 5487,
      "▁하고": 5488,
      "▁편": 5489,
      "▁진행": 5490,
      "▁복": 5491,
      "▁넘": 5492,
      "▁지난해": 5493,
      "▁태": 5494,
      "성이": 5495,
      "▁이런": 5496,
      "▁최근": 5497,
      "▁사용": 5498,
      "▁12": 5499,
      "들에게": 5500,
      "▁특히": 5501,
      "▁지금": 5502,
      "▁국민": 5503,
      "▁절": 5504,
      "▁않는": 5505,
      "▁준": 5506,
      "기업": 5507,
      "▁힘": 5508,
      "주의": 5509,
      "▁국내": 5510,
      "▁정도": 5511,
      "▁날": 5512,
      "하면서": 5513,
      "은행": 5514,
      "▁군": 5515,
      "▁11": 5516,
      "▁다시": 5517,
      "▁갖": 5518,
      "만원": 5519,
      "▁된": 5520,
      "뉴스": 5521,
      "▁될": 5522,
      "▁많은": 5523,
      "▁교육": 5524,
      "▁코": 5525,
      "▁S": 5526,
      "▁카": 5527,
      "▁권": 5528,
      "▁친": 5529,
      "000": 5530,
      "▁현재": 5531,
      "...": 5532,
      "정을": 5533,
      "화를": 5534,
      "▁얼": 5535,
      "▁완": 5536,
      "▁늘": 5537,
      "기가": 5538,
      "회의": 5539,
      "▁아니라": 5540,
      "▁벌": 5541,
      "▁허": 5542,
      "▁그리고": 5543,
      "▁온": 5544,
      "▁시간": 5545,
      "▁설명": 5546,
      "▁계획": 5547,
      "하다.\n": 5548,
      "리가": 5549,
      "▁결과": 5550,
      "니까": 5551,
      "▁애": 5552,
      "▁농": 5553,
      "▁예정": 5554,
      "▁정치": 5555,
      "자의": 5556,
      "스트": 5557,
      "이고": 5558,
      "▁모습": 5559,
      "▁식": 5560,
      "거나": 5561,
      "▁\"\"": 5562,
      "상을": 5563,
      "지만,": 5564,
      "다\"며": 5565,
      "기도": 5566,
      "비스": 5567,
      "이는": 5568,
      "로운": 5569,
      "0년": 5570,
      "▁올해": 5571,
      "사가": 5572,
      "▁국가": 5573,
      "▁-": 5574,
      "▁경찰": 5575,
      "▁토": 5576,
      "▁첫": 5577,
      "▁있을": 5578,
      "▁로": 5579,
      "▁글": 5580,
      "▁있었다.\n": 5581,
      "사는": 5582,
      "되고": 5583,
      "시아": 5584,
      "이었다.\n": 5585,
      "다\n": 5586,
      "▁메": 5587,
      "▁이용": 5588,
      "시간": 5589,
      "레이": 5590,
      "▁버": 5591,
      "▁모든": 5592,
      "▁야": 5593,
      "▁끝": 5594,
      "▁향": 5595,
      "▁연구": 5596,
      "가는": 5597,
      "요.": 5598,
      "▁민주": 5599,
      "▁다양": 5600,
      "▁느": 5601,
      "▁나타": 5602,
      "▁싶": 5603,
      "▁질": 5604,
      "학교": 5605,
      "▁곳": 5606,
      "으면": 5607,
      "▁홍": 5608,
      "▁접": 5609,
      "▁폭": 5610,
      "▁기록": 5611,
      "▁시장": 5612,
      "▁투자": 5613,
      "▁라": 5614,
      "운데": 5615,
      "니다.": 5616,
      "▁사이": 5617,
      "▁측": 5618,
      "▁다음": 5619,
      "▁백": 5620,
      "▁너": 5621,
      "▁잡": 5622,
      "다가": 5623,
      "▁막": 5624,
      "▁마음": 5625,
      "▁K": 5626,
      "사업": 5627,
      "▁북한": 5628,
      "기는": 5629,
      "▁대상": 5630,
      "▁항": 5631,
      "▁천": 5632,
      "르면": 5633,
      "씨는": 5634,
      "▁보고": 5635,
      "▁전문": 5636,
      "▁볼": 5637,
      "▁길": 5638,
      "▁운영": 5639,
      "▁브": 5640,
      "▁철": 5641,
      "▁삼성": 5642,
      "▁15": 5643,
      "에서도": 5644,
      "▁가운데": 5645,
      "▁효": 5646,
      "▁어떤": 5647,
      "▁용": 5648,
      "이었": 5649,
      "▁축": 5650,
      "▁내용": 5651,
      "▁이유": 5652,
      "▁이에": 5653,
      "▁커": 5654,
      "▁그래": 5655,
      "▁한편": 5656,
      "▁A": 5657,
      "▁관계자는": 5658,
      "▁많이": 5659,
      "▁30": 5660,
      "들과": 5661,
      "▁기대": 5662,
      "▁있다는": 5663,
      "▁중요": 5664,
      "▁이미": 5665,
      "▁쓰": 5666,
      "▁병": 5667,
      "▁최고": 5668,
      "▁발표": 5669,
      "▁당시": 5670,
      "▁방송": 5671,
      "▁금융": 5672,
      "▁떠": 5673,
      "▁된다.\n": 5674,
      "▁빠": 5675,
      "했던": 5676,
      "▁공개": 5677,
      "▁등의": 5678,
      "시장": 5679,
      "▁제공": 5680,
      "렸다.\n": 5681,
      "▁알려": 5682,
      "▁자신의": 5683,
      "▁먹": 5684,
      "자를": 5685,
      "▁참여": 5686,
      "하고,": 5687,
      "▁추진": 5688,
      "인이": 5689,
      "위원회": 5690,
      "▁선수": 5691,
      "▁또한": 5692,
      "▁학생": 5693,
      "▁갈": 5694,
      "▁다양한": 5695,
      "하겠": 5696,
      "사의": 5697,
      "▁이야": 5698,
      "▁몸": 5699,
      "▁개발": 5700,
      "▁감독": 5701,
      "입니다.\n": 5702,
      "식을": 5703,
      "▁이를": 5704,
      "▁나는": 5705,
      "▁동안": 5706,
      "▁평가": 5707,
      "▁그것": 5708,
      "▁따르면": 5709,
      "▁처음": 5710,
      "▁결정": 5711,
      "▁디": 5712,
      "▁급": 5713,
      "▁존": 5714,
      "▁베": 5715,
      "으며,": 5716,
      "왔다.\n": 5717,
      "▁C": 5718,
      "으나": 5719,
      "▁조사": 5720,
      "▁이제": 5721,
      "해서": 5722,
      "▁발생": 5723,
      "▁오후": 5724,
      "센터": 5725,
      "▁않고": 5726,
      "▁패": 5727,
      "▁죽": 5728,
      "▁돌아": 5729,
      "▁L": 5730,
      "▁않았": 5731,
      "어나": 5732,
      "▁여러": 5733,
      "▁기자": 5734,
      "기로": 5735,
      "\"이라고": 5736,
      "▁골": 5737,
      "▁사진": 5738,
      "▁문화": 5739,
      "▁<": 5740,
      "▁않은": 5741,
      "동을": 5742,
      "▁현대": 5743,
      "▁사건": 5744,
      "랜드": 5745,
      "▁네.": 5746,
      "▁잠": 5747,
      "▁때문이다.\n": 5748,
      "▁떨": 5749,
      "▁의미": 5750,
      "부는": 5751,
      "▁정책": 5752,
      "교육": 5753,
      "▁새로운": 5754,
      "▁트": 5755,
      "▁기술": 5756,
      "위를": 5757,
      "도를": 5758,
      "▁인터": 5759,
      "▁영화": 5760,
      "라도": 5761,
      "원은": 5762,
      "▁주장": 5763,
      "▁몰": 5764,
      "▁윤": 5765,
      "▁마련": 5766,
      "▁지적": 5767,
      "경제": 5768,
      "▁확인": 5769,
      "머니": 5770,
      "되어": 5771,
      "▁전망": 5772,
      "▁관심": 5773,
      "▁등이": 5774,
      "인의": 5775,
      "▁18": 5776,
      "▁직접": 5777,
      "회를": 5778,
      "▁국제": 5779,
      "마트": 5780,
      "▁극": 5781,
      "▁수도": 5782,
      "▁놓": 5783,
      "▁요구": 5784,
      "리아": 5785,
      "▁받아": 5786,
      "▁사랑": 5787,
      "의를": 5788,
      "그램": 5789,
      "명을": 5790,
      "명이": 5791,
      "▁면": 5792,
      "▁열린": 5793,
      "▁포함": 5794,
      "▁강조": 5795,
      "▁바로": 5796,
      "▁교수": 5797,
      "▁판매": 5798,
      "20": 5799,
      "▁정보": 5800,
      "▁이렇게": 5801,
      "▁여성": 5802,
      "▁어려": 5803,
      "▁대학": 5804,
      "▁범": 5805,
      "다'": 5806,
      "▁찾아": 5807,
      "시키": 5808,
      "▁계속": 5809,
      "▁서비스": 5810,
      "▁학교": 5811,
      "▁없다.\n": 5812,
      "▁M": 5813,
      "▁어떻": 5814,
      "\t\t": 5815,
      "지역": 5816,
      "▁돈": 5817,
      "▁그렇": 5818,
      "▁좋은": 5819,
      "▁그의": 5820,
      "▁엄": 5821,
      "났다.\n": 5822,
      "▁전국": 5823,
      "▁머": 5824,
      "▁보여": 5825,
      "치를": 5826,
      "▁분석": 5827,
      "▁황": 5828,
      "이지": 5829,
      "▁증가": 5830,
      "점을": 5831,
      "▁확대": 5832,
      "▁13": 5833,
      "했다고": 5834,
      "▁제품": 5835,
      "▁피해": 5836,
      "▁난": 5837,
      "주는": 5838,
      "나라": 5839,
      "▁16": 5840,
      "원이": 5841,
      "▁송": 5842,
      "력이": 5843,
      "▁예상": 5844,
      "▁어떻게": 5845,
      "▁낮": 5846,
      "▁일부": 5847,
      "며,": 5848,
      "▁귀": 5849,
      "▁중심": 5850,
      "리에": 5851,
      "▁경쟁": 5852,
      "▁핵": 5853,
      "제로": 5854,
      "▁부산": 5855,
      "▁만들어": 5856,
      "▁월": 5857,
      "▁보인": 5858,
      "▁은": 5859,
      "▁없이": 5860,
      "▁내가": 5861,
      "▁최대": 5862,
      "원을": 5863,
      "▁뿐": 5864,
      "▁물론": 5865,
      "▁좀": 5866,
      "▁씨": 5867,
      "▁별": 5868,
      "▁검찰": 5869,
      "▁울": 5870,
      "▁성공": 5871,
      "▁14": 5872,
      "▁혐": 5873,
      "▁있도록": 5874,
      "▁시민": 5875,
      "밖에": 5876,
      "지가": 5877,
      "▁과정": 5878,
      "인은": 5879,
      "안을": 5880,
      "▁되는": 5881,
      "르는": 5882,
      "▁기준": 5883,
      "▁역시": 5884,
      "▁오는": 5885,
      "▁전체": 5886,
      "▁침": 5887,
      "▁아닌": 5888,
      "▁얻": 5889,
      "▁상태": 5890,
      "전을": 5891,
      "▁수준": 5892,
      "금을": 5893,
      "▁떨어": 5894,
      "▁더욱": 5895,
      "▁희": 5896,
      "▁준비": 5897,
      "기관": 5898,
      "▁구성": 5899,
      "▁영향": 5900,
      "▁악": 5901,
      "▁왜": 5902,
      "대표": 5903,
      "장의": 5904,
      "▁100": 5905,
      "이라며": 5906,
      "▁공동": 5907,
      "▁있다고": 5908,
      "▁예.": 5909,
      "0%": 5910,
      "대를": 5911,
      "▁나오": 5912,
      "▁오전": 5913,
      "▁맡": 5914,
      "▁오늘": 5915,
      "원의": 5916,
      "▁아무": 5917,
      "연구": 5918,
      "▁그녀": 5919,
      "▁예정이다.\n": 5920,
      "▁뜻": 5921,
      "▁생산": 5922,
      "장에서": 5923,
      "▁드러": 5924,
      "▁인간": 5925,
      "▁테": 5926,
      "▁너무": 5927,
      "▁뭐": 5928,
      "er": 5929,
      "▁환경": 5930,
      "치는": 5931,
      "음을": 5932,
      "▁규모": 5933,
      "▁강화": 5934,
      "in": 5935,
      "냈다.\n": 5936,
      "▁터": 5937,
      "▁휴": 5938,
      "on": 5939,
      "시에": 5940,
      "가지": 5941,
      "업체": 5942,
      "선을": 5943,
      "▁0": 5944,
      "▁일반": 5945,
      "세를": 5946,
      "▁이름": 5947,
      "이스": 5948,
      "▁가격": 5949,
      "이트": 5950,
      "▁선거": 5951,
      "제를": 5952,
      "▁고객": 5953,
      "▁높은": 5954,
      "▁프로그램": 5955,
      "▁부분": 5956,
      "▁이러": 5957,
      "▁팀": 5958,
      "▁방법": 5959,
      "▁것도": 5960,
      "누리": 5961,
      "문화": 5962,
      "▁17": 5963,
      "리스": 5964,
      "▁지방": 5965,
      "명의": 5966,
      "▁풀": 5967,
      "▁주민": 5968,
      "▁상승": 5969,
      "▁밀": 5970,
      "▁먼": 5971,
      "\"\"": 5972,
      "▁생활": 5973,
      "▁않았다.\n": 5974,
      "수를": 5975,
      "동안": 5976,
      "▁추가": 5977,
      "정부": 5978,
      "▁혼": 5979,
      "인을": 5980,
      "지도": 5981,
      "하려": 5982,
      "▁만큼": 5983,
      "산업": 5984,
      "▁즉": 5985,
      "▁소비": 5986,
      "▁듯": 5987,
      "▁폐": 5988,
      "자로": 5989,
      "▁외국": 5990,
      "▁방문": 5991,
      "▁얘": 5992,
      "▁I": 5993,
      "▁둘": 5994,
      "▁어느": 5995,
      "임을": 5996,
      "▁키": 5997,
      "▁왕": 5998,
      "▁와": 5999,
      "▁25": 6000,
      "▁설명했다.\n": 6001,
      "시는": 6002,
      "도로": 6003,
      "▁그래서": 6004,
      "▁비롯": 6005,
      "▁중앙": 6006,
      "▁해외": 6007,
      "▁사람이": 6008,
      "▁응": 6009,
      "▁작품": 6010,
      "▁육": 6011,
      "사에": 6012,
      "다\"\"": 6013,
      "▁탈": 6014,
      "▁성장": 6015,
      "▁국회": 6016,
      "▁홈": 6017,
      "▁며": 6018,
      "▁가지": 6019,
      "▁받고": 6020,
      "▁보면": 6021,
      "도가": 6022,
      "▁아직": 6023,
      "▁자기": 6024,
      "▁활동": 6025,
      "▁역할": 6026,
      "▁가족": 6027,
      "▁주요": 6028,
      "▁효과": 6029,
      "드는": 6030,
      "▁산업": 6031,
      "▁페": 6032,
      "▁무엇": 6033,
      "▁지속": 6034,
      "▁레": 6035,
      "▁:": 6036,
      "스템": 6037,
      "'을": 6038,
      "▁끌": 6039,
      "부분": 6040,
      "나는": 6041,
      "▁사고": 6042,
      "사회": 6043,
      "▁결국": 6044,
      "어서": 6045,
      "없이": 6046,
      "▁특별": 6047,
      "▁즐": 6048,
      "▁삶": 6049,
      "▁이해": 6050,
      "▁이는": 6051,
      "▁크게": 6052,
      "▁,": 6053,
      "개월": 6054,
      "▁개인": 6055,
      "▁배우": 6056,
      ".\"\n": 6057,
      "▁탄": 6058,
      "누리당": 6059,
      "▁기존": 6060,
      "▁팔": 6061,
      "▁자유": 6062,
      "감을": 6063,
      "▁조선": 6064,
      "▁펼": 6065,
      "▁뛰": 6066,
      "▁하지": 6067,
      "▁활용": 6068,
      "동차": 6069,
      "▁앞으로": 6070,
      "▁있습니다.\n": 6071,
      "▁플": 6072,
      "수가": 6073,
      "▁대구": 6074,
      "이가": 6075,
      "▁일이": 6076,
      "▁몇": 6077,
      "2년": 6078,
      "▁웃": 6079,
      "▁참석": 6080,
      "▁않을": 6081,
      "▁이러한": 6082,
      "부를": 6083,
      "▁그런데": 6084,
      "들도": 6085,
      "▁노동": 6086,
      "▁긴": 6087,
      "▁199": 6088,
      "과의": 6089,
      "▁실시": 6090,
      "근혜": 6091,
      "권을": 6092,
      "▁풍": 6093,
      "▁유지": 6094,
      "▁클": 6095,
      "물을": 6096,
      "스타": 6097,
      "되지": 6098,
      "▁쉽": 6099,
      "▁앞서": 6100,
      "▁T": 6101,
      "▁적극": 6102,
      "▁또는": 6103,
      "죠.\n": 6104,
      "▁인천": 6105,
      "▁해당": 6106,
      "▁놀": 6107,
      "스로": 6108,
      "▁안전": 6109,
      "장,": 6110,
      "8년": 6111,
      "움을": 6112,
      "정한": 6113,
      "▁등에": 6114,
      "장에": 6115,
      "▁숨": 6116,
      "▁해결": 6117,
      "대의": 6118,
      "▁판단": 6119,
      "▁P": 6120,
      "5년": 6121,
      "▁자연": 6122,
      "단체": 6123,
      "스는": 6124,
      "료를": 6125,
      "▁어린": 6126,
      "▁말을": 6127,
      "▁도시": 6128,
      "▁우려": 6129,
      "7년": 6130,
      "▁B": 6131,
      "1일": 6132,
      "▁전했다.\n": 6133,
      "▁관리": 6134,
      "▁자체": 6135,
      "▁미래": 6136,
      "인데": 6137,
      "관리": 6138,
      "▁민주당": 6139,
      "▁됐": 6140,
      "▁개선": 6141,
      "▁없었": 6142,
      "▁정상": 6143,
      "▁적용": 6144,
      "▁존재": 6145,
      "1년": 6146,
      "3년": 6147,
      "자들이": 6148,
      "그룹": 6149,
      "정보": 6150,
      "▁새누리당": 6151,
      "▁그렇게": 6152,
      "▁집중": 6153,
      "▁압": 6154,
      "파트": 6155,
      "▁얼마": 6156,
      "문을": 6157,
      "스를": 6158,
      "한다는": 6159,
      "▁돼": 6160,
      "국의": 6161,
      "일보": 6162,
      "전히": 6163,
      "▁광주": 6164,
      "▁스타": 6165,
      "마다": 6166,
      "전에": 6167,
      "▁뉴스": 6168,
      "'를": 6169,
      "▁경영": 6170,
      "▁24": 6171,
      "▁분야": 6172,
      "기술": 6173,
      "대에": 6174,
      "는데,": 6175,
      "▁혐의": 6176,
      "▁대부분": 6177,
      "▁싸": 6178,
      "라며": 6179,
      "▁스마트": 6180,
      "▁지나": 6181,
      "▁받은": 6182,
      "상이": 6183,
      "개발": 6184,
      "정이": 6185,
      "▁\"이": 6186,
      "▁나라": 6187,
      "는다.\n": 6188,
      "▁대선": 6189,
      "▁비판": 6190,
      "▁건강": 6191,
      "가를": 6192,
      "▁같이": 6193,
      "▁상대": 6194,
      "서를": 6195,
      "시설": 6196,
      "▁인정": 6197,
      "▁기간": 6198,
      "▁현실": 6199,
      "▁고려": 6200,
      "계를": 6201,
      "▁인터넷": 6202,
      "로부터": 6203,
      "▁답": 6204,
      "▁먼저": 6205,
      "▁만나": 6206,
      "▁선택": 6207,
      "▁이뤄": 6208,
      "▁시즌": 6209,
      "습니다.": 6210,
      "▁대비": 6211,
      "▁얼굴": 6212,
      "사와": 6213,
      "▁건설": 6214,
      "로벌": 6215,
      "▁따른": 6216,
      "▁위원": 6217,
      "4년": 6218,
      "▁이루": 6219,
      "▁목표": 6220,
      "▁구조": 6221,
      "▁개최": 6222,
      "▁상품": 6223,
      "▁의견": 6224,
      "▁능": 6225,
      "금융": 6226,
      "▁보인다.\n": 6227,
      "이를": 6228,
      "▁올라": 6229,
      "co": 6230,
      "▁부담": 6231,
      "▁보도": 6232,
      "▁조직": 6233,
      "▁언론": 6234,
      "an": 6235,
      "▁인사": 6236,
      "▁국정": 6237,
      "▁내려": 6238,
      "진다.\n": 6239,
      "▁캐": 6240,
      "▁살아": 6241,
      "6년": 6242,
      "9년": 6243,
      "자인": 6244,
      "▁확보": 6245,
      "▁꿈": 6246,
      "수는": 6247,
      "▁각각": 6248,
      "▁하루": 6249,
      "▁경험": 6250,
      "▁장관": 6251,
      "▁\"그": 6252,
      "지원": 6253,
      "▁나온": 6254,
      "느냐": 6255,
      "▁설치": 6256,
      "▁자리": 6257,
      "▁내년": 6258,
      "▁표현": 6259,
      "▁봉": 6260,
      "▁기능": 6261,
      "▁선정": 6262,
      "부가": 6263,
      "했습니다.\n": 6264,
      "▁발견": 6265,
      "▁제주": 6266,
      "▁계획이다.\n": 6267,
      "▁친구": 6268,
      "와의": 6269,
      "▁공격": 6270,
      "▁출연": 6271,
      "라인": 6272,
      "지막": 6273,
      "▁변화": 6274,
      "▁대상으로": 6275,
      "▁됐다.\n": 6276,
      "▁뉴": 6277,
      "▁매출": 6278,
      "▁업무": 6279,
      "케이": 6280,
      "일부터": 6281,
      "디어": 6282,
      "도의": 6283,
      "▁깨": 6284,
      "▁발전": 6285,
      "지,": 6286,
      "▁영업": 6287,
      "▁갖고": 6288,
      "▁유럽": 6289,
      "'\n": 6290,
      "▁붙": 6291,
      "▁`": 6292,
      "BS": 6293,
      "적이": 6294,
      "▁상당": 6295,
      "▁아버": 6296,
      "▁중요한": 6297,
      "▁지난달": 6298,
      "지에": 6299,
      "▁석": 6300,
      "▁결혼": 6301,
      "정책": 6302,
      "en": 6303,
      "▁모습을": 6304,
      "롯데": 6305,
      "증권": 6306,
      "▁제작": 6307,
      "▁등으로": 6308,
      "▁22": 6309,
      "하기로": 6310,
      "므로": 6311,
      "한국": 6312,
      ".1": 6313,
      "▁23": 6314,
      "▁박근혜": 6315,
      "▁노력": 6316,
      "▁여기": 6317,
      "▁제기": 6318,
      "▁방식": 6319,
      "▁전략": 6320,
      "투자": 6321,
      "라이": 6322,
      "인가": 6323,
      "▁해야": 6324,
      "?\"\n": 6325,
      "원에": 6326,
      "▁논란": 6327,
      "갔다.\n": 6328,
      "▁못한": 6329,
      "▁가지고": 6330,
      "▁서로": 6331,
      "▁밤": 6332,
      "서울": 6333,
      "▁않아": 6334,
      "하였다.\n": 6335,
      "▁콘": 6336,
      "▁제시": 6337,
      "!\n": 6338,
      "전자": 6339,
      "장과": 6340,
      "▁누구": 6341,
      "▁강조했다.\n": 6342,
      "가가": 6343,
      "▁나서": 6344,
      "약을": 6345,
      "▁마지막": 6346,
      "▁을": 6347,
      "▁관광": 6348,
      "▁문제가": 6349,
      "어난": 6350,
      "▁있다": 6351,
      "▁정신": 6352,
      "▁없어": 6353,
      "▁중소": 6354,
      "▁책임": 6355,
      ".5": 6356,
      "▁덧": 6357,
      "▁과거": 6358,
      "▁한다는": 6359,
      "▁만에": 6360,
      "▁차지": 6361,
      "▁업체": 6362,
      "▁믿": 6363,
      "보고": 6364,
      "▁견": 6365,
      "▁6월": 6366,
      "▁의원은": 6367,
      "포츠": 6368,
      "▁알고": 6369,
      "▁있는데": 6370,
      "달러": 6371,
      "환경": 6372,
      "자들의": 6373,
      "상의": 6374,
      "▁거래": 6375,
      "▁헤": 6376,
      "▁좋아": 6377,
      "연합": 6378,
      "▁흔": 6379,
      "▁수익": 6380,
      "요?\n": 6381,
      "▁이것": 6382,
      "▁반응": 6383,
      "▁품": 6384,
      "트를": 6385,
      "▁겨": 6386,
      "▁청와": 6387,
      "▁읽": 6388,
      "리그": 6389,
      "민주": 6390,
      "▁꾸": 6391,
      "▁블": 6392,
      "성과": 6393,
      "라마": 6394,
      "▁녹": 6395,
      "▁시행": 6396,
      "원에서": 6397,
      "▁쪽": 6398,
      "▁역사": 6399,
      "▁것\"이라고": 6400,
      "▁수출": 6401,
      "일까지": 6402,
      "▁글로벌": 6403,
      "▁N": 6404,
      "▁가능성이": 6405,
      "▁선보": 6406,
      "▁우선": 6407,
      "▁움": 6408,
      "▁격": 6409,
      "씨가": 6410,
      "도는": 6411,
      "조사": 6412,
      "▁반면": 6413,
      "거리": 6414,
      "▁공연": 6415,
      "▁되어": 6416,
      "▁출신": 6417,
      "▁이야기": 6418,
      "소를": 6419,
      "▁하면": 6420,
      "업을": 6421,
      "▁주변": 6422,
      "년간": 6423,
      "스의": 6424,
      "▁도입": 6425,
      "▁공급": 6426,
      "로서": 6427,
      "대회": 6428,
      "내는": 6429,
      "▁바람": 6430,
      "▁게임": 6431,
      "대가": 6432,
      "▁깊": 6433,
      "경기": 6434,
      "▁예산": 6435,
      "로는": 6436,
      "▁조성": 6437,
      "▁러": 6438,
      "▁논의": 6439,
      "▁하락": 6440,
      "으로써": 6441,
      "림픽": 6442,
      "▁출시": 6443,
      "훈련": 6444,
      "▁넘어": 6445,
      "▁대신": 6446,
      "▁덧붙": 6447,
      "▁있던": 6448,
      "▁수사": 6449,
      "▁말이": 6450,
      "하자": 6451,
      "▁정말": 6452,
      "▁50": 6453,
      "▁F": 6454,
      "▁헌": 6455,
      "▁곧": 6456,
      "▁조금": 6457,
      "▁아파트": 6458,
      "▁어렵": 6459,
      "르고": 6460,
      "▁착": 6461,
      "위에": 6462,
      "▁이와": 6463,
      "▁듣": 6464,
      "도시": 6465,
      "▁평균": 6466,
      "▁26": 6467,
      "▁롯데": 6468,
      "▁27": 6469,
      "▁음악": 6470,
      "▁선발": 6471,
      "▁없었다.\n": 6472,
      "▁흐": 6473,
      "▁있고": 6474,
      "▁여자": 6475,
      "스가": 6476,
      "했다는": 6477,
      "▁사람들이": 6478,
      "한다고": 6479,
      "쳤다.\n": 6480,
      "했고,": 6481,
      "▁은행": 6482,
      "리지": 6483,
      "▁전문가": 6484,
      "▁기본": 6485,
      "▁28": 6486,
      "대한": 6487,
      "▁신청": 6488,
      "▁회사": 6489,
      "'의": 6490,
      "제가": 6491,
      "▁지도": 6492,
      "▁어디": 6493,
      "▁3월": 6494,
      "▁행사": 6495,
      "▁분위": 6496,
      "▁일을": 6497,
      "or": 6498,
      "▁G": 6499,
      "▁알려졌다.\n": 6500,
      "▁벗": 6501,
      "▁그가": 6502,
      "▁매우": 6503,
      "학생": 6504,
      "리의": 6505,
      "거래": 6506,
      "▁우리가": 6507,
      "▁참가": 6508,
      "▁핵심": 6509,
      "▁통합": 6510,
      "치고": 6511,
      "▁보였다.\n": 6512,
      ".2": 6513,
      "이며": 6514,
      "▁좌": 6515,
      "스럽": 6516,
      "▁주택": 6517,
      "▁4월": 6518,
      "▁퇴": 6519,
      "▁목소": 6520,
      "▁어~": 6521,
      "▁공식": 6522,
      "너지": 6523,
      "▁있게": 6524,
      "▁필요한": 6525,
      "더라도": 6526,
      "하던": 6527,
      "들에": 6528,
      "▁는": 6529,
      "▁땅": 6530,
      "▁우리는": 6531,
      "▁소속": 6532,
      "▁아시아": 6533,
      "정은": 6534,
      "▁스스로": 6535,
      "▁관한": 6536,
      "▁따라서": 6537,
      "▁5월": 6538,
      "▁직원": 6539,
      "▁촉": 6540,
      "▁번째": 6541,
      "생활": 6542,
      "구를": 6543,
      "통신": 6544,
      "▁제대로": 6545,
      "▁암": 6546,
      "스러": 6547,
      "▁7월": 6548,
      "▁의혹": 6549,
      "분기": 6550,
      "▁E": 6551,
      "▁SK": 6552,
      "동산": 6553,
      "회가": 6554,
      "▁LG": 6555,
      "▁사람은": 6556,
      "관계": 6557,
      "▁아니다.\n": 6558,
      "▁지지": 6559,
      "기의": 6560,
      "▁이동": 6561,
      "▁자동차": 6562,
      "▁가까": 6563,
      "▁D": 6564,
      "▁정부가": 6565,
      "▁혁": 6566,
      "▁위험": 6567,
      "▁퍼": 6568,
      "개를": 6569,
      "▁역할을": 6570,
      "▁행정": 6571,
      "▁낙": 6572,
      "두고": 6573,
      "인지": 6574,
      "려고": 6575,
      "비를": 6576,
      "하도록": 6577,
      "▁브랜드": 6578,
      "▁부족": 6579,
      "▁보험": 6580,
      "201": 6581,
      "했지만": 6582,
      "이란": 6583,
      "▁움직": 6584,
      "▁만든": 6585,
      "▁있기": 6586,
      "--": 6587,
      "장으로": 6588,
      "▁사무": 6589,
      "ti": 6590,
      "▁두고": 6591,
      "▁징": 6592,
      "▁9월": 6593,
      "▁주목": 6594,
      "▁문제를": 6595,
      "보다는": 6596,
      "ar": 6597,
      "부의": 6598,
      "▁당신": 6599,
      "'에": 6600,
      "바일": 6601,
      "상에": 6602,
      "되었": 6603,
      "자들은": 6604,
      "하거나": 6605,
      "BC": 6606,
      "위는": 6607,
      "▁대응": 6608,
      "▁과정에서": 6609,
      "행을": 6610,
      "▁빨": 6611,
      ".co": 6612,
      "▁진출": 6613,
      "▁갑": 6614,
      "▁잔": 6615,
      "촬영": 6616,
      "▁대형": 6617,
      "있는": 6618,
      "▁술": 6619,
      "al": 6620,
      "겠다는": 6621,
      "▁영향을": 6622,
      "▁시스템": 6623,
      "▁우승": 6624,
      "소년": 6625,
      "운동": 6626,
      "▁최초": 6627,
      "▁검토": 6628,
      "지지": 6629,
      "▁그동안": 6630,
      "경찰": 6631,
      "대는": 6632,
      "하다는": 6633,
      "▁전달": 6634,
      "▁본격": 6635,
      "르게": 6636,
      "▁대회": 6637,
      "▁비교": 6638,
      "▁독일": 6639,
      "▁기관": 6640,
      "▁대통령은": 6641,
      "성은": 6642,
      "움이": 6643,
      "▁영국": 6644,
      "어야": 6645,
      "▁사실을": 6646,
      "서도": 6647,
      "▁어머니": 6648,
      "▁맛": 6649,
      "했다.": 6650,
      "▁달리": 6651,
      "▁안정": 6652,
      "▁반대": 6653,
      "이기": 6654,
      "사진": 6655,
      "지의": 6656,
      "▁거의": 6657,
      "▁1년": 6658,
      "원으로": 6659,
      ".3": 6660,
      "드를": 6661,
      "▁방침": 6662,
      "▁각종": 6663,
      "수의": 6664,
      "▁소개": 6665,
      "▁정도로": 6666,
      "만큼": 6667,
      "▁덧붙였다.\n": 6668,
      "▁40": 6669,
      "▁캠": 6670,
      "하였": 6671,
      "▁공간": 6672,
      "▁대해서는": 6673,
      "▁8월": 6674,
      "리로": 6675,
      "▁공공": 6676,
      "▁왔": 6677,
      "▁차량": 6678,
      "▁프랑": 6679,
      "이터": 6680,
      "▁팬": 6681,
      "식이": 6682,
      "▁실제": 6683,
      "▁겪": 6684,
      "▁있지만": 6685,
      "되었다.\n": 6686,
      "▁29": 6687,
      "보험": 6688,
      "▁지급": 6689,
      "히려": 6690,
      "▁최종": 6691,
      "▁위치": 6692,
      "▁넣": 6693,
      "▁혹": 6694,
      "과학": 6695,
      "▁젊": 6696,
      "도,": 6697,
      "▁행복": 6698,
      "▁감소": 6699,
      "세계": 6700,
      "▁동시에": 6701,
      "▁보는": 6702,
      "▁반영": 6703,
      "▁있다\"고": 6704,
      "▁합의": 6705,
      "▁그대로": 6706,
      "▁남자": 6707,
      "▁자신이": 6708,
      "▁보호": 6709,
      "▁불법": 6710,
      "원,": 6711,
      "기간": 6712,
      "▁12월": 6713,
      "어요.\n": 6714,
      "▁10월": 6715,
      "▁엔": 6716,
      "10": 6717,
      "▁비해": 6718,
      "▁전통": 6719,
      "▁가진": 6720,
      "고를": 6721,
      "물이": 6722,
      "▁대통령이": 6723,
      "보는": 6724,
      "▁빈": 6725,
      "화가": 6726,
      "▁나가": 6727,
      "대학": 6728,
      "▁감사": 6729,
      "▁수밖에": 6730,
      "으니": 6731,
      "▁대표는": 6732,
      "적을": 6733,
      "부에": 6734,
      "▁되었": 6735,
      "섰다.\n": 6736,
      "▁중심으로": 6737,
      "▁알아": 6738,
      "▁재판": 6739,
      "30": 6740,
      "▁해서": 6741,
      "▁찬": 6742,
      "랐다.\n": 6743,
      "어진": 6744,
      "▁협력": 6745,
      "▁부모": 6746,
      "▁를": 6747,
      "시켜": 6748,
      "▁워": 6749,
      "▁불가": 6750,
      "건설": 6751,
      "▁구체": 6752,
      "▁운동": 6753,
      "▁충분": 6754,
      "오는": 6755,
      "▁희망": 6756,
      "성에": 6757,
      "▁오히려": 6758,
      "▁정부의": 6759,
      "자,": 6760,
      "▁이들은": 6761,
      "▁1월": 6762,
      "'는": 6763,
      "▁가입": 6764,
      "▁구축": 6765,
      "▁얘기": 6766,
      "▁빼": 6767,
      "▁우리나라": 6768,
      "방송": 6769,
      "▁숙": 6770,
      "▁빌": 6771,
      "이어": 6772,
      "▁류": 6773,
      "스터": 6774,
      "▁되고": 6775,
      "▁컨": 6776,
      "▁기다": 6777,
      "▁딸": 6778,
      "반기": 6779,
      "▁작은": 6780,
      "▁분명": 6781,
      "▁전해": 6782,
      "▁것이라고": 6783,
      "▁이전": 6784,
      "▁묻": 6785,
      "▁의해": 6786,
      "▁전쟁": 6787,
      "▁보내": 6788,
      "▁높아": 6789,
      "▁시청": 6790,
      "▁전에": 6791,
      "▁노래": 6792,
      "하기도": 6793,
      "▁스마트폰": 6794,
      "▁등장": 6795,
      "▁수가": 6796,
      "▁모델": 6797,
      "▁해도": 6798,
      "정에": 6799,
      "▁흥": 6800,
      "▁연결": 6801,
      "단을": 6802,
      "▁못하고": 6803,
      "▁연속": 6804,
      "으로는": 6805,
      "▁받았": 6806,
      "▁불구": 6807,
      "▁납": 6808,
      "▁망": 6809,
      "▁발언": 6810,
      "사,": 6811,
      "▁순간": 6812,
      "롭게": 6813,
      "▁관심을": 6814,
      "▁남북": 6815,
      "▁이라고": 6816,
      "▁인해": 6817,
      "프로": 6818,
      "치가": 6819,
      "▁요청": 6820,
      "\"이라며": 6821,
      "심을": 6822,
      "▁속에서": 6823,
      "▁이끌": 6824,
      "합니다.\n": 6825,
      "▁제외": 6826,
      "위가": 6827,
      "과를": 6828,
      "▁대한민": 6829,
      "사로": 6830,
      "▁종합": 6831,
      "자와": 6832,
      "선거": 6833,
      "▁때는": 6834,
      "▁앉": 6835,
      "▁정부는": 6836,
      "세가": 6837,
      "▁기억": 6838,
      "▁받았다.\n": 6839,
      "▁옮": 6840,
      "규모": 6841,
      "▁형태": 6842,
      "▁루": 6843,
      "▁욕": 6844,
      "자리": 6845,
      "주택": 6846,
      "▁슬": 6847,
      "펀드": 6848,
      "되면서": 6849,
      "▁계약": 6850,
      "▁궁": 6851,
      "▁잃": 6852,
      "▁부동산": 6853,
      "등학교": 6854,
      "▁촬영": 6855,
      "▁전환": 6856,
      "▁다만": 6857,
      "▁방향": 6858,
      "▁당선": 6859,
      "차를": 6860,
      "▁정확": 6861,
      "▁오른": 6862,
      "▁수요": 6863,
      "▁대통령의": 6864,
      "▁198": 6865,
      "▁모바일": 6866,
      "회는": 6867,
      "▁비용": 6868,
      "▁끊": 6869,
      "▁잘못": 6870,
      "지로": 6871,
      "▁과학": 6872,
      "▁보유": 6873,
      "▁설립": 6874,
      "▁수입": 6875,
      "했고": 6876,
      "▁회복": 6877,
      "▁기획": 6878,
      "▁졸": 6879,
      "되면": 6880,
      "이익": 6881,
      "▁대책": 6882,
      "▁언제": 6883,
      "▁사례": 6884,
      "▁관련해": 6885,
      "인트": 6886,
      "▁주는": 6887,
      "▁달라": 6888,
      "▁경남": 6889,
      "▁주식": 6890,
      "▁사망": 6891,
      "▁전혀": 6892,
      "▁아주": 6893,
      "▁인수": 6894,
      "▁점을": 6895,
      "▁외교": 6896,
      "다\"\"고": 6897,
      "▁처리": 6898,
      "▁사회적": 6899,
      "is": 6900,
      "▁2월": 6901,
      "▁솔": 6902,
      "이자": 6903,
      "스코": 6904,
      "',": 6905,
      "19": 6906,
      "▁받을": 6907,
      "▁속에": 6908,
      "디오": 6909,
      "했을": 6910,
      "▁지켜": 6911,
      "▁티": 6912,
      "▁대변": 6913,
      "▁의료": 6914,
      "▁중인": 6915,
      "▁유명": 6916,
      "격을": 6917,
      "로,": 6918,
      "▁혜": 6919,
      "▁바라": 6920,
      "▁드라마": 6921,
      "으로서": 6922,
      "▁이들": 6923,
      "50": 6924,
      "▁않는다.\n": 6925,
      "실을": 6926,
      "▁받는": 6927,
      "에선": 6928,
      ".4": 6929,
      "▁고용": 6930,
      "▁마을": 6931,
      "▁얼마나": 6932,
      "더니": 6933,
      "▁잇": 6934,
      "▁대출": 6935,
      "본부": 6936,
      "▁구속": 6937,
      "▁시절": 6938,
      "계획": 6939,
      "▁흘": 6940,
      "▁홍보": 6941,
      "었던": 6942,
      "▁슈": 6943,
      "▁말씀": 6944,
      "▁회의": 6945,
      "▁되었다.\n": 6946,
      "▁나타났다.\n": 6947,
      "▁청와대": 6948,
      "▁파악": 6949,
      "▁염": 6950,
      "▁중소기업": 6951,
      "▁치료": 6952,
      "점이": 6953,
      "길을": 6954,
      "▁기념": 6955,
      "▁스포츠": 6956,
      "▁어려운": 6957,
      "▁통한": 6958,
      "▁개정": 6959,
      "하다": 6960,
      "스크": 6961,
      "성화": 6962,
      "구가": 6963,
      "▁민간": 6964,
      "▁보다": 6965,
      "▁아름": 6966,
      "으로부터": 6967,
      "▁거쳐": 6968,
      "▁있고,": 6969,
      "▁여행": 6970,
      "▁여전히": 6971,
      "같이": 6972,
      "▁선생": 6973,
      "▁11월": 6974,
      "▁그림": 6975,
      "▁지적했다.\n": 6976,
      "품을": 6977,
      "▁가져": 6978,
      "▁내놓": 6979,
      "우는": 6980,
      "▁제1": 6981,
      "▁제한": 6982,
      "신문": 6983,
      "▁장애": 6984,
      "개의": 6985,
      "이에": 6986,
      "▁체험": 6987,
      "운드": 6988,
      "▁젊은": 6989,
      "▁불과": 6990,
      "성의": 6991,
      "▁있다.": 6992,
      "는지": 6993,
      "하다고": 6994,
      "시가": 6995,
      "▁그때": 6996,
      "어들": 6997,
      "까?\n": 6998,
      "자에게": 6999,
      "es": 7000,
      "▁어린이": 7001,
      "과는": 7002,
      "▁아래": 7003,
      "▁러시아": 7004,
      "▁멀": 7005,
      "상은": 7006,
      "량을": 7007,
      "율이": 7008,
      "▁교통": 7009,
      "▁덕": 7010,
      "▁시설": 7011,
      "정의": 7012,
      "▁입장": 7013,
      "▁아~": 7014,
      "▁한번": 7015,
      "▁던": 7016,
      "▁고민": 7017,
      ".7": 7018,
      "통합": 7019,
      "수록": 7020,
      "▁쉽게": 7021,
      "▁힘들": 7022,
      "▁제가": 7023,
      "▁찍": 7024,
      "복지": 7025,
      "▁못했다.\n": 7026,
      "▁미국의": 7027,
      "건을": 7028,
      "▁되면": 7029,
      "▁돈을": 7030,
      "▁장기": 7031,
      "▁질문": 7032,
      "▁놓고": 7033,
      "▁꼭": 7034,
      "기,": 7035,
      "재인": 7036,
      "일을": 7037,
      "▁이야기를": 7038,
      "▁전시": 7039,
      "▁담당": 7040,
      "아가": 7041,
      "서비스": 7042,
      "▁부정": 7043,
      "▁앞두고": 7044,
      ".6": 7045,
      "▁대화": 7046,
      "만이": 7047,
      "▁섬": 7048,
      "회사": 7049,
      "▁우수": 7050,
      "▁차례": 7051,
      "▁남편": 7052,
      "려는": 7053,
      "무원": 7054,
      "▁단체": 7055,
      "▁언급": 7056,
      ".8": 7057,
      "만을": 7058,
      "▁측은": 7059,
      "▁주장했다.\n": 7060,
      "▁약속": 7061,
      "으면서": 7062,
      "'이": 7063,
      "▁예술": 7064,
      "▁억": 7065,
      "▁온라인": 7066,
      "가의": 7067,
      "▁가는": 7068,
      "하지만": 7069,
      "▁행동": 7070,
      "같은": 7071,
      "▁작업": 7072,
      "▁무슨": 7073,
      "▁나와": 7074,
      "▁외국인": 7075,
      "▁주인": 7076,
      "드시": 7077,
      "▁후보는": 7078,
      "▁확정": 7079,
      "▁경찰은": 7080,
      "▁강력": 7081,
      "▁분양": 7082,
      "▁제출": 7083,
      "▁그룹": 7084,
      "감이": 7085,
      "▁정당": 7086,
      "▁대전": 7087,
      "▁것이라는": 7088,
      "▁엄마": 7089,
      "▁재정": 7090,
      "자에": 7091,
      "▁내용을": 7092,
      "분을": 7093,
      "▁꼽": 7094,
      "▁쇼": 7095,
      "▁봐": 7096,
      "%로": 7097,
      "▁2년": 7098,
      "▁들어가": 7099,
      "▁원내": 7100,
      "도에": 7101,
      "▁방안": 7102,
      "으로,": 7103,
      "다\"면서": 7104,
      "▁걱": 7105,
      "▁그리": 7106,
      "▁최소": 7107,
      "▁비슷": 7108,
      "▁인식": 7109,
      "억원을": 7110,
      "공사": 7111,
      "▁푸": 7112,
      "▁사라": 7113,
      "▁색": 7114,
      "지방": 7115,
      "▁향후": 7116,
      "▁훈련": 7117,
      "▁현장": 7118,
      "▁실제로": 7119,
      "▁연기": 7120,
      "활동": 7121,
      "▁맞아": 7122,
      "▁기반": 7123,
      "▁위해서는": 7124,
      "▁중단": 7125,
      "▁단순": 7126,
      "▁꽃": 7127,
      "▁기초": 7128,
      "▁문학": 7129,
      "시키는": 7130,
      "▁없다는": 7131,
      "겼다.\n": 7132,
      "▁힘을": 7133,
      "구의": 7134,
      "자기": 7135,
      "▁인근": 7136,
      "▁없을": 7137,
      "에서의": 7138,
      "▁가슴": 7139,
      "회담": 7140,
      "t;": 7141,
      "관을": 7142,
      "씨의": 7143,
      "▁신고": 7144,
      "▁위해서": 7145,
      "▁경기도": 7146,
      "국민": 7147,
      "관이": 7148,
      "중앙": 7149,
      "다운": 7150,
      "▁코스": 7151,
      "▁빛": 7152,
      "▁있으며,": 7153,
      "▁비롯해": 7154,
      "▁2010년": 7155,
      "주고": 7156,
      "▁남아": 7157,
      "▁TV": 7158,
      "▁광고": 7159,
      "정치": 7160,
      "▁수상": 7161,
      "▁변호": 7162,
      "▁상황에서": 7163,
      "▁마음을": 7164,
      "였던": 7165,
      "▁이른": 7166,
      "▁한다고": 7167,
      "산을": 7168,
      "▁애플": 7169,
      "하는데": 7170,
      "▁그것은": 7171,
      "우리": 7172,
      "▁불안": 7173,
      "▁택": 7174,
      "시의": 7175,
      "카드": 7176,
      "▁입장을": 7177,
      "TV": 7178,
      "▁갈등": 7179,
      "관은": 7180,
      "▁혐의로": 7181,
      "▁셈": 7182,
      ".9": 7183,
      "▁위반": 7184,
      "▁청년": 7185,
      "th": 7186,
      "▁시간이": 7187,
      "소득": 7188,
      "▁제안": 7189,
      "▁쉬": 7190,
      "▁짓": 7191,
      "▁이사": 7192,
      "▁21": 7193,
      "▁감독은": 7194,
      "▁밝혀": 7195,
      "▁현지": 7196,
      "▁것처럼": 7197,
      "▁단계": 7198,
      "▁신규": 7199,
      "함을": 7200,
      "단은": 7201,
      "▁울산": 7202,
      "▁\"아": 7203,
      "다'고": 7204,
      "▁수행": 7205,
      "▁컴": 7206,
      "▁내부": 7207,
      "경을": 7208,
      "▁아내": 7209,
      "▁냉": 7210,
      "▁지하": 7211,
      "▁달러": 7212,
      "신을": 7213,
      "▁이상의": 7214,
      "▁느끼": 7215,
      "▁옆": 7216,
      "량이": 7217,
      "0년대": 7218,
      "▁맥": 7219,
      "▁전반": 7220,
      "▁교수는": 7221,
      "▁안에": 7222,
      "▁히": 7223,
      "▁대중": 7224,
      "▁익": 7225,
      "▁모르": 7226,
      "▁보니": 7227,
      "없는": 7228,
      "le": 7229,
      "▁것에": 7230,
      "▁느낌": 7231,
      "▁상대로": 7232,
      "▁실패": 7233,
      "▁이하": 7234,
      "▁제조": 7235,
      "▁이곳": 7236,
      "▁사태": 7237,
      "협회": 7238,
      "▁유통": 7239,
      "▁뜨": 7240,
      "▁둘러": 7241,
      "지면서": 7242,
      "분이": 7243,
      "▁인터뷰": 7244,
      "위로": 7245,
      "▁해석": 7246,
      "평가": 7247,
      "▁소설": 7248,
      "잖아": 7249,
      "▁년": 7250,
      "▁시작했다.\n": 7251,
      "▁칼": 7252,
      "▁반드시": 7253,
      "▁수는": 7254,
      "발전": 7255,
      "무를": 7256,
      "▁사는": 7257,
      "리와": 7258,
      "▁둔": 7259,
      "▁있었던": 7260,
      "웠다.\n": 7261,
      "▁일으": 7262,
      "명은": 7263,
      "▁늦": 7264,
      "안전": 7265,
      "▁아침": 7266,
      "▁지정": 7267,
      "기와": 7268,
      "▁쌓": 7269,
      "번째": 7270,
      "제는": 7271,
      "▁전자": 7272,
      "이다.": 7273,
      "▁1만": 7274,
      "▁끼": 7275,
      "▁“이": 7276,
      "▁프리": 7277,
      "▁있지": 7278,
      "어를": 7279,
      "▁틀": 7280,
      "▁않다.\n": 7281,
      "▁여름": 7282,
      "▁근로": 7283,
      "간의": 7284,
      "▁부문": 7285,
      "▁구매": 7286,
      "▁쏟": 7287,
      "▁대한민국": 7288,
      "▁불러": 7289,
      "▁지금까지": 7290,
      "00만원": 7291,
      "만의": 7292,
      "▁제2": 7293,
      "▁있어서": 7294,
      "▁등록": 7295,
      "프트": 7296,
      "금이": 7297,
      "▁프랑스": 7298,
      "무리": 7299,
      "▁라고": 7300,
      "▁국회의": 7301,
      "세대": 7302,
      "▁인물": 7303,
      "-1": 7304,
      "▁증권": 7305,
      "▁적이": 7306,
      "▁마찬": 7307,
      "시켰": 7308,
      "▁신뢰": 7309,
      "▁이벤": 7310,
      "리기": 7311,
      "▁시간을": 7312,
      "▁사람들은": 7313,
      "어도": 7314,
      "법을": 7315,
      "시스": 7316,
      "▁오래": 7317,
      "▁가능한": 7318,
      "업계": 7319,
      "▁나선": 7320,
      "론을": 7321,
      "▁유치": 7322,
      "▁특징": 7323,
      "회에서": 7324,
      "'은": 7325,
      "▁평화": 7326,
      "▁21일": 7327,
      "구조": 7328,
      "일이": 7329,
      "다며": 7330,
      "▁반응을": 7331,
      "▁전남": 7332,
      "텐츠": 7333,
      "▁사람의": 7334,
      "▁바탕": 7335,
      "▁넓": 7336,
      ".\"": 7337,
      "지와": 7338,
      "▁3년": 7339,
      "케팅": 7340,
      "▁강남": 7341,
      "▁12일": 7342,
      "▁밖": 7343,
      "전문": 7344,
      "▁국방": 7345,
      "▁같다.\n": 7346,
      "▁중이다.\n": 7347,
      "▁마찬가지": 7348,
      "대책": 7349,
      "▁자본": 7350,
      "▁필요가": 7351,
      "▁강원": 7352,
      "겠다고": 7353,
      "▁투표": 7354,
      "▁등은": 7355,
      "▁2011년": 7356,
      "단이": 7357,
      "▁문제는": 7358,
      "▁인도": 7359,
      "까.\n": 7360,
      "▁정권": 7361,
      "?\"": 7362,
      "▁업계": 7363,
      "별로": 7364,
      "▁통과": 7365,
      "▁공정": 7366,
      "레스": 7367,
      "▁자료": 7368,
      "당이": 7369,
      "수로": 7370,
      "하라": 7371,
      "청은": 7372,
      "▁체결": 7373,
      "▁독립": 7374,
      "노동": 7375,
      "▁살펴": 7376,
      "에게는": 7377,
      "▁3일": 7378,
      "▁것과": 7379,
      "▁심각": 7380,
      "▁종목": 7381,
      "화된": 7382,
      "▁신용": 7383,
      "단의": 7384,
      "리,": 7385,
      "▁소득": 7386,
      "시킨": 7387,
      "었다.": 7388,
      "만에": 7389,
      "인과": 7390,
      "진은": 7391,
      "▁하여": 7392,
      "▁옷": 7393,
      "면을": 7394,
      "'로": 7395,
      "▁청소년": 7396,
      "▁인상": 7397,
      "▁음식": 7398,
      "▁시각": 7399,
      "▁뽑": 7400,
      "스러운": 7401,
      "어가": 7402,
      "학과": 7403,
      "적이고": 7404,
      "▁20일": 7405,
      "▁처음으로": 7406,
      "▁대체": 7407,
      "주가": 7408,
      "'가": 7409,
      "▁나를": 7410,
      "▁있으며": 7411,
      "▁H": 7412,
      "▁이익": 7413,
      "▁생각이": 7414,
      "▁신문": 7415,
      "▁곡": 7416,
      "증을": 7417,
      "▁뒷": 7418,
      "▁개념": 7419,
      "▁R": 7420,
      "▁사상": 7421,
      "제의": 7422,
      "아야": 7423,
      "린다.\n": 7424,
      "학년": 7425,
      "▁접근": 7426,
      "불어": 7427,
      "▁되지": 7428,
      "리카": 7429,
      "위의": 7430,
      "구나": 7431,
      "▁2차": 7432,
      "▁보이": 7433,
      "km": 7434,
      "▁문재인": 7435,
      "▁5일": 7436,
      "▁생각을": 7437,
      "▁작년": 7438,
      "▁통신": 7439,
      "▁점에서": 7440,
      "국이": 7441,
      "▁원칙": 7442,
      "▁서울시": 7443,
      "▁쓴": 7444,
      "▁O": 7445,
      "라면": 7446,
      "▁죄": 7447,
      "한테": 7448,
      "체를": 7449,
      "▁회장": 7450,
      "▁하면서": 7451,
      "이라도": 7452,
      "▁뇌": 7453,
      "▁우리의": 7454,
      "주를": 7455,
      "원과": 7456,
      "...\n": 7457,
      "▁한편,": 7458,
      "▁휘": 7459,
      "점으로": 7460,
      "▁통일": 7461,
      "▁싶은": 7462,
      "▁건물": 7463,
      "▁노조": 7464,
      "▁출발": 7465,
      "%를": 7466,
      "조선": 7467,
      "사고": 7468,
      "▁범죄": 7469,
      "▁축구": 7470,
      "▁지키": 7471,
      "▁15일": 7472,
      "▁만드는": 7473,
      "이드": 7474,
      "▁이유로": 7475,
      "▁국민의": 7476,
      "▁하기": 7477,
      "▁60": 7478,
      "▁10일": 7479,
      "▁탐": 7480,
      "▁전망이다.\n": 7481,
      "영화": 7482,
      "00만": 7483,
      "▁나누": 7484,
      "▁비롯한": 7485,
      "▁전기": 7486,
      "하며,": 7487,
      "▁사업을": 7488,
      "철수": 7489,
      "회에": 7490,
      "▁빠져": 7491,
      "▁주로": 7492,
      "거든": 7493,
      "▁그녀는": 7494,
      "▁옥": 7495,
      "경영": 7496,
      "▁1일": 7497,
      "▁주도": 7498,
      "보를": 7499,
      "▁앞에서": 7500,
      "%,": 7501,
      "▁떠나": 7502,
      "▁다르": 7503,
      "▁타고": 7504,
      "▁모양": 7505,
      "▁관심이": 7506,
      "▁그냥": 7507,
      "▁하늘": 7508,
      "국은": 7509,
      "▁주고": 7510,
      "▁투입": 7511,
      "▁인생": 7512,
      "▁거부": 7513,
      "▁안타": 7514,
      "내고": 7515,
      "▁활동을": 7516,
      "▁에너지": 7517,
      "▁비중": 7518,
      "▁전화": 7519,
      "▁실적": 7520,
      "▁사실상": 7521,
      "▁한다": 7522,
      "▁조정": 7523,
      "마을": 7524,
      "▁더불어": 7525,
      "스럽게": 7526,
      "관광": 7527,
      "▁최고의": 7528,
      "하려는": 7529,
      "▁자녀": 7530,
      "▁개혁": 7531,
      "▁맺": 7532,
      "▁손을": 7533,
      "▁니": 7534,
      "▁시험": 7535,
      "▁소재": 7536,
      "▁예방": 7537,
      "주시": 7538,
      "▁선언": 7539,
      "▁판결": 7540,
      "▁근거": 7541,
      "▁도로": 7542,
      "▁도전": 7543,
      "▁/": 7544,
      "멤버": 7545,
      "▁이루어": 7546,
      "▁자리를": 7547,
      "▁쿠": 7548,
      "▁이르": 7549,
      "▁저는": 7550,
      "▁명의": 7551,
      "전에서": 7552,
      "당은": 7553,
      "진을": 7554,
      "▁14일": 7555,
      "▁11일": 7556,
      "율을": 7557,
      "▁7일": 7558,
      "요.\"\n": 7559,
      "▁2008년": 7560,
      "▁뮤": 7561,
      "▁합니다.\n": 7562,
      "▁졸업": 7563,
      "소가": 7564,
      "▁민족": 7565,
      "▁하는데": 7566,
      "▁시도": 7567,
      "▁보이는": 7568,
      "▁의견을": 7569,
      "▁못하는": 7570,
      "▁휴대": 7571,
      "▁강한": 7572,
      "▁보이고": 7573,
      "▁지식": 7574,
      "\t\t\t\t": 7575,
      "ew": 7576,
      "▁벌어": 7577,
      "▁겁": 7578,
      ".k": 7579,
      "▁대기업": 7580,
      "이의": 7581,
      ".0": 7582,
      "▁재미": 7583,
      "성,": 7584,
      "▁옛": 7585,
      "▁펼쳐": 7586,
      "함으로써": 7587,
      "▁마무리": 7588,
      "점에서": 7589,
      "중에": 7590,
      "▁마치": 7591,
      "▁근무": 7592,
      "다른": 7593,
      "다,": 7594,
      "▁눈에": 7595,
      "▁늘어": 7596,
      "비가": 7597,
      "▁아마": 7598,
      "▁결과를": 7599,
      "조차": 7600,
      "▁일어나": 7601,
      "▁까": 7602,
      "씨를": 7603,
      "▁엘": 7604,
      "▁소송": 7605,
      "▁혁신": 7606,
      "▁여론": 7607,
      "▁의사": 7608,
      "명박": 7609,
      "▁소유": 7610,
      "▁사람을": 7611,
      "나무": 7612,
      "률이": 7613,
      "인으로": 7614,
      "▁무료": 7615,
      "▁전날": 7616,
      "구는": 7617,
      "▁뉴욕": 7618,
      "▁하나의": 7619,
      "습니까": 7620,
      "▁6일": 7621,
      "사에서": 7622,
      "스,": 7623,
      "▁회장은": 7624,
      "▁경우가": 7625,
      "거운": 7626,
      "▁마이": 7627,
      "하겠다는": 7628,
      "▁가치": 7629,
      "▁197": 7630,
      "▁복지": 7631,
      "ww": 7632,
      "님이": 7633,
      "▁지배": 7634,
      "▁형성": 7635,
      "▁괴": 7636,
      "▁제도": 7637,
      "▁긍": 7638,
      "▁촉구": 7639,
      "▁2012년": 7640,
      "▁경북": 7641,
      "▁북한의": 7642,
      "선수": 7643,
      "▁앞에": 7644,
      "▁13일": 7645,
      "00여": 7646,
      "▁벤": 7647,
      "데이": 7648,
      "시스템": 7649,
      "▁방안을": 7650,
      "국제": 7651,
      "시를": 7652,
      "▁열어": 7653,
      "▁이름을": 7654,
      "▁8일": 7655,
      "았던": 7656,
      "▁c": 7657,
      "▁혜택": 7658,
      "차례": 7659,
      "▁씨는": 7660,
      "▁그~": 7661,
      "▁꺼": 7662,
      "워크": 7663,
      "리한": 7664,
      "역을": 7665,
      "▁취업": 7666,
      "▁뿌": 7667,
      "트는": 7668,
      "▁U": 7669,
      "▁도움이": 7670,
      "re": 7671,
      "이며,": 7672,
      "▁올림픽": 7673,
      "▁정보를": 7674,
      "▁홈페": 7675,
      "명으로": 7676,
      "▁서비스를": 7677,
      "▁인한": 7678,
      "▁바이": 7679,
      "부와": 7680,
      "\"라고": 7681,
      "해도": 7682,
      "상으로": 7683,
      "▁많아": 7684,
      "▁않으면": 7685,
      "▁혈": 7686,
      "▁4일": 7687,
      "받은": 7688,
      "입니다.": 7689,
      "▁22일": 7690,
      "▁건축": 7691,
      "▁출전": 7692,
      "▁자주": 7693,
      "▁측면": 7694,
      "▁규정": 7695,
      "▁훨": 7696,
      "▁허용": 7697,
      "현지": 7698,
      "▁군사": 7699,
      "▁했던": 7700,
      "해를": 7701,
      "규직": 7702,
      "▁빚": 7703,
      "▁2009년": 7704,
      "▁활성화": 7705,
      "▁시대": 7706,
      "▁있다\"며": 7707,
      "▁나의": 7708,
      "니스": 7709,
      "▁&": 7710,
      "▁KT": 7711,
      "▁선물": 7712,
      "▁법률": 7713,
      "질을": 7714,
      "명,": 7715,
      "리며": 7716,
      "▁MBC": 7717,
      "▁써": 7718,
      "▁열리는": 7719,
      "▁끌어": 7720,
      "▁겨울": 7721,
      "아이": 7722,
      "▁한국의": 7723,
      "▁자세": 7724,
      "인들이": 7725,
      "성장": 7726,
      "▁회원": 7727,
      "기고": 7728,
      "▁사이에": 7729,
      "▁이달": 7730,
      "▁가정": 7731,
      "▁9일": 7732,
      "▁액": 7733,
      ".kr": 7734,
      "▁유일": 7735,
      "▁멤버": 7736,
      "▁훨씬": 7737,
      "▁16일": 7738,
      "▁국토": 7739,
      "▁기록했다.\n": 7740,
      "▁매일": 7741,
      "▁만족": 7742,
      "▁일단": 7743,
      "'라는": 7744,
      "▁프로젝": 7745,
      "한다": 7746,
      "드컵": 7747,
      "▁여기에": 7748,
      "▁다가": 7749,
      "항공": 7750,
      "당의": 7751,
      "▁많다.\n": 7752,
      "▁보수": 7753,
      "▁한다\"고": 7754,
      "해진": 7755,
      ".com": 7756,
      "문학": 7757,
      "▁자금": 7758,
      "▁토론": 7759,
      "력과": 7760,
      "이,": 7761,
      "리즈": 7762,
      "화에": 7763,
      "▁것이다.": 7764,
      "▁들고": 7765,
      "▁25일": 7766,
      "▁23일": 7767,
      "▁이유는": 7768,
      "▁자신을": 7769,
      "▁고통": 7770,
      "▁혹은": 7771,
      "▁그를": 7772,
      "소에": 7773,
      "▁겸": 7774,
      "▁밑": 7775,
      "니아": 7776,
      "▁불구하고": 7777,
      "▁나왔다.\n": 7778,
      "▁기회를": 7779,
      "▁협의": 7780,
      "▁모습이": 7781,
      "▁추천": 7782,
      "대학교": 7783,
      "▁정치적": 7784,
      "▁하겠": 7785,
      "▁낸": 7786,
      "▁전년": 7787,
      "▁채권": 7788,
      "반도": 7789,
      "▁수술": 7790,
      "▁작용": 7791,
      "체가": 7792,
      "▁쓸": 7793,
      "분의": 7794,
      "체육": 7795,
      "라.\n": 7796,
      "▁라이": 7797,
      "했으나": 7798,
      "선이": 7799,
      "▁위에": 7800,
      "▁몸을": 7801,
      "후보": 7802,
      "▁눈길을": 7803,
      "▁봤": 7804,
      "▁브라": 7805,
      "▁항공": 7806,
      "안이": 7807,
      "▁19일": 7808,
      "▁호텔": 7809,
      "▁국무": 7810,
      "▁바꾸": 7811,
      "▁걸쳐": 7812,
      "▁쏟아": 7813,
      "▁아들": 7814,
      "▁당연": 7815,
      "▁후보가": 7816,
      "이라면": 7817,
      "tion": 7818,
      "기자": 7819,
      "▁묘": 7820,
      "it": 7821,
      "▁조건": 7822,
      "공단": 7823,
      "▁인기": 7824,
      "▁나무": 7825,
      "군의": 7826,
      "▁든": 7827,
      "▁포기": 7828,
      "▁차별": 7829,
      "▁혼자": 7830,
      "▁메이": 7831,
      "▁흑": 7832,
      "▁예비": 7833,
      ",000": 7834,
      "종합": 7835,
      "▁나머": 7836,
      "▁2일": 7837,
      "진이": 7838,
      "가고": 7839,
      "티즌": 7840,
      "▁말한다.\n": 7841,
      "▁17일": 7842,
      "▁26일": 7843,
      "▁위협": 7844,
      "▁밝히": 7845,
      "▁확산": 7846,
      "▁24일": 7847,
      "▁점검": 7848,
      "▁27일": 7849,
      "▁자산": 7850,
      "▁영어": 7851,
      "▁채용": 7852,
      "▁28일": 7853,
      "▁마케팅": 7854,
      "▁나타나": 7855,
      "▁18일": 7856,
      "▁그들은": 7857,
      "▁레이": 7858,
      "공항": 7859,
      "▁스트": 7860,
      "▁있겠": 7861,
      "▁확실": 7862,
      "▁챙": 7863,
      "보면": 7864,
      "▁보장": 7865,
      "▁상황을": 7866,
      "▁가르": 7867,
      "▁여야": 7868,
      "▁주인공": 7869,
      "▁금지": 7870,
      "▁맨": 7871,
      "기준": 7872,
      "감독": 7873,
      "▁잊": 7874,
      "▁긍정": 7875,
      "▁작가": 7876,
      "▁일정": 7877,
      "▁다니": 7878,
      "▁소리": 7879,
      "▁낮은": 7880,
      "▁원내대표": 7881,
      "▁1차": 7882,
      "텔레": 7883,
      "▁후반": 7884,
      "▁맞는": 7885,
      "▁아프": 7886,
      "▁창업": 7887,
      "▁그럼": 7888,
      "▁바탕으로": 7889,
      "페인": 7890,
      "게임": 7891,
      "▁Y": 7892,
      "▁실천": 7893,
      "at": 7894,
      "협의": 7895,
      "▁절대": 7896,
      "ent": 7897,
      "▁카드": 7898,
      "▁특정": 7899,
      "부모": 7900,
      "▁상황이": 7901,
      "▁10년": 7902,
      "▁달성": 7903,
      "▁소통": 7904,
      "병원": 7905,
      "안에": 7906,
      "▁걱정": 7907,
      "러스": 7908,
      "▁요즘": 7909,
      "바마": 7910,
      "님의": 7911,
      "▁영상": 7912,
      "▁사전": 7913,
      "▁가수": 7914,
      "준다.\n": 7915,
      "▁싱": 7916,
      "▁선고": 7917,
      "전략": 7918,
      "▁똑": 7919,
      "▁의한": 7920,
      "▁매년": 7921,
      "▁이탈": 7922,
      "요일": 7923,
      "호를": 7924,
      "형을": 7925,
      "▁방침이다.\n": 7926,
      "▁계열": 7927,
      "▁수용": 7928,
      "▁부인": 7929,
      "▁하고,": 7930,
      "▁매각": 7931,
      "▁길을": 7932,
      "▁탓": 7933,
      "제품": 7934,
      "문이": 7935,
      "▁사실이": 7936,
      "▁홀": 7937,
      "▁검찰은": 7938,
      "명에": 7939,
      "율은": 7940,
      "자금": 7941,
      "▁굴": 7942,
      "▁대답": 7943,
      "▁기여": 7944,
      "우고": 7945,
      "▁철저": 7946,
      "▁흔들": 7947,
      "▁학습": 7948,
      "에만": 7949,
      "▁세종": 7950,
      "▁갑자기": 7951,
      "려면": 7952,
      "▁꾸준": 7953,
      "▁벽": 7954,
      "▁갔": 7955,
      "올림픽": 7956,
      "면서도": 7957,
      "아시아": 7958,
      "▁사진을": 7959,
      "▁런": 7960,
      "▁동일": 7961,
      "▁비난": 7962,
      "한다면": 7963,
      "▁굳": 7964,
      "실에서": 7965,
      "예술": 7966,
      "▁이명박": 7967,
      "▁2007년": 7968,
      "▁다소": 7969,
      "대,": 7970,
      "▁바뀌": 7971,
      "▁맞춰": 7972,
      "▁그것을": 7973,
      "▁반발": 7974,
      "▁공부": 7975,
      "권의": 7976,
      "-2": 7977,
      "▁아울": 7978,
      "▁창출": 7979,
      "▁눈을": 7980,
      "ic": 7981,
      "▁30일": 7982,
      "재를": 7983,
      "▁걷": 7984,
      "력은": 7985,
      "▁털": 7986,
      "▁나온다.\n": 7987,
      "화의": 7988,
      "이션": 7989,
      "▁남성": 7990,
      "▁나오는": 7991,
      "이면": 7992,
      "▁언어": 7993,
      "....": 7994,
      "했다": 7995,
      "▁세월": 7996,
      "전이": 7997,
      "▁할인": 7998,
      "▁J": 7999,
      "▁왔다.\n": 8000,
      "▁국립": 8001,
      "▁하며": 8002,
      "▁관객": 8003,
      "▁향해": 8004,
      "상품": 8005,
      "자들에게": 8006,
      "▁헌법": 8007,
      "▁항상": 8008,
      "▁W": 8009,
      "el": 8010,
      "▁네티즌": 8011,
      "▁기소": 8012,
      "▁디자인": 8013,
      "18": 8014,
      "▁2013년": 8015,
      "▁중에": 8016,
      "▁변경": 8017,
      "un": 8018,
      "세기": 8019,
      "심히": 8020,
      "만으로": 8021,
      "▁새로": 8022,
      "차가": 8023,
      "퓨터": 8024,
      "자산": 8025,
      "▁벗어나": 8026,
      "▁짧": 8027,
      "▁사람들": 8028,
      "위터": 8029,
      "▁바다": 8030,
      "▁삼성전자": 8031,
      "하나": 8032,
      "력의": 8033,
      "▁넘는": 8034,
      "▁것입니다.\n": 8035,
      "▁꼬": 8036,
      "지털": 8037,
      "화점": 8038,
      "종의": 8039,
      "▁대해서": 8040,
      "▁저녁": 8041,
      "당한": 8042,
      "▁없다고": 8043,
      "▁완전히": 8044,
      "▁이게": 8045,
      "조합": 8046,
      "▁창조": 8047,
      "계가": 8048,
      "▁봄": 8049,
      "▁구입": 8050,
      "자들": 8051,
      "▁나섰다.\n": 8052,
      "구에": 8053,
      "▁골프": 8054,
      "▁추정": 8055,
      "▁셈이다.\n": 8056,
      "▁집행": 8057,
      "▁대규모": 8058,
      "소는": 8059,
      "제도": 8060,
      "▁대법": 8061,
      "▁충분히": 8062,
      "이었던": 8063,
      "▁그리스": 8064,
      "시킬": 8065,
      "▁같아": 8066,
      "▁모른": 8067,
      "서관": 8068,
      "야.": 8069,
      "트로": 8070,
      "금은": 8071,
      "▁29일": 8072,
      "되기": 8073,
      "▁타이": 8074,
      "▁자랑": 8075,
      "'에서": 8076,
      "▁p": 8077,
      "▁관련된": 8078,
      "▁규모의": 8079,
      "15": 8080,
      "▁종교": 8081,
      "▁연출": 8082,
      "▁불편": 8083,
      "▁콘텐츠": 8084,
      "▁앉아": 8085,
      "조정": 8086,
      "'으로": 8087,
      "시민": 8088,
      "▁1천": 8089,
      "군은": 8090,
      "▁5년": 8091,
      "▁공유": 8092,
      "▁수석": 8093,
      "야구": 8094,
      "▁단일": 8095,
      "▁흐름": 8096,
      "체의": 8097,
      "▁보통": 8098,
      "식에": 8099,
      "▁특수": 8100,
      "▁객": 8101,
      "▁말해": 8102,
      "▁중국의": 8103,
      "▁습": 8104,
      "▁글을": 8105,
      "▁화장": 8106,
      "자치": 8107,
      "▁열고": 8108,
      "▁연장": 8109,
      "▁공무원": 8110,
      "▁십": 8111,
      "포인트": 8112,
      "▁일자리": 8113,
      "치지": 8114,
      "▁케": 8115,
      "▁그들의": 8116,
      "▁상담": 8117,
      "..\n": 8118,
      "▁밥": 8119,
      "▁음~": 8120,
      "▁누가": 8121,
      "▁KBS": 8122,
      "▁득": 8123,
      "▁상징": 8124,
      "보호": 8125,
      "▁뜻을": 8126,
      "▁쌍": 8127,
      "플레이": 8128,
      "▁획": 8129,
      "▁탑": 8130,
      "성도": 8131,
      "▁전력": 8132,
      "▁빨리": 8133,
      "자들을": 8134,
      "▁아니냐": 8135,
      "▁나왔": 8136,
      "▁끝에": 8137,
      "스와": 8138,
      "▁규제": 8139,
      "▁아울러": 8140,
      "▁의무": 8141,
      "▁만한": 8142,
      "▁실현": 8143,
      "▁출범": 8144,
      "▁이처럼": 8145,
      "만원을": 8146,
      "가족": 8147,
      "▁정리": 8148,
      "▁1000": 8149,
      "트워크": 8150,
      "▁일은": 8151,
      "▁한나라": 8152,
      "지게": 8153,
      "▁오바마": 8154,
      "▁기업의": 8155,
      "부장": 8156,
      "는가": 8157,
      "40": 8158,
      "▁의원이": 8159,
      "▁라는": 8160,
      "▁주말": 8161,
      "대에서": 8162,
      "▁듣고": 8163,
      "과정": 8164,
      "▁경우에는": 8165,
      "▁출마": 8166,
      "메라": 8167,
      "많은": 8168,
      "▁전북": 8169,
      "▁케이": 8170,
      "▁만난": 8171,
      "▁들여": 8172,
      "ing": 8173,
      "'이라는": 8174,
      "▁이승": 8175,
      "▁미디어": 8176,
      "분에": 8177,
      "로를": 8178,
      "▁발행": 8179,
      "▁짐": 8180,
      "▁잡아": 8181,
      "단계": 8182,
      "▁이번에": 8183,
      "▁도착": 8184,
      "▁그것이": 8185,
      "▁일본의": 8186,
      "▁연구원은": 8187,
      "▁1위": 8188,
      "화는": 8189,
      "▁단지": 8190,
      "▁외부": 8191,
      "목을": 8192,
      "▁비상": 8193,
      "▁인제": 8194,
      "유의": 8195,
      "▁하게": 8196,
      "하우": 8197,
      "▁성과": 8198,
      "적이다.\n": 8199,
      "자.\n": 8200,
      "기지": 8201,
      "▁배경": 8202,
      "률을": 8203,
      "▁지속적으로": 8204,
      "닷컴": 8205,
      "▁정의": 8206,
      "뮤니": 8207,
      "▁감안": 8208,
      "▁굉": 8209,
      "이고,": 8210,
      "계약": 8211,
      "▁이란": 8212,
      "12": 8213,
      "----": 8214,
      "식품": 8215,
      "▁공감": 8216,
      "받는": 8217,
      "메달": 8218,
      "▁기울": 8219,
      "▁안철수": 8220,
      "까지는": 8221,
      "▁시작한": 8222,
      "▁책을": 8223,
      "▁배치": 8224,
      "▁균": 8225,
      "▁신경": 8226,
      "\"고": 8227,
      "▁증거": 8228,
      "호는": 8229,
      "se": 8230,
      "▁베이": 8231,
      "ews": 8232,
      "▁부여": 8233,
      "▁연예": 8234,
      "▁처벌": 8235,
      "▁받아들": 8236,
      "▁메시": 8237,
      "▁생각해": 8238,
      "선의": 8239,
      "승을": 8240,
      "협력": 8241,
      "▁김영": 8242,
      "▁그린": 8243,
      "▁보기": 8244,
      "▁하이": 8245,
      "▁진짜": 8246,
      "▁중앙일보": 8247,
      "격이": 8248,
      "자동차": 8249,
      "▁원하는": 8250,
      "~2": 8251,
      "▁IT": 8252,
      "렀다.\n": 8253,
      "▁작성": 8254,
      "▁임대": 8255,
      "▁수원": 8256,
      "비는": 8257,
      "▁인간의": 8258,
      "▁전면": 8259,
      "▁f": 8260,
      "든지": 8261,
      "비용": 8262,
      "▁것이었다.\n": 8263,
      "▁잠시": 8264,
      "다\"\"며": 8265,
      "▁보도했다.\n": 8266,
      "표를": 8267,
      "개혁": 8268,
      "▁교과": 8269,
      "▁책임을": 8270,
      "지구": 8271,
      "중한": 8272,
      "항을": 8273,
      "점에": 8274,
      "▁과정을": 8275,
      "말로": 8276,
      "▁거듭": 8277,
      "▁취임": 8278,
      "▁삼성전": 8279,
      "▁절반": 8280,
      "세요": 8281,
      "▁통화": 8282,
      "▁뛰어": 8283,
      "▁대해서도": 8284,
      "▁비슷한": 8285,
      "▁삶을": 8286,
      "교통": 8287,
      "▁장면": 8288,
      "프라": 8289,
      "▁늘어나": 8290,
      "▁집단": 8291,
      "생을": 8292,
      "▁달려": 8293,
      "▁홈페이지": 8294,
      "▁만약": 8295,
      "연을": 8296,
      "▁방식으로": 8297,
      "▁최초로": 8298,
      "주년": 8299,
      "▁명예": 8300,
      "서에": 8301,
      "▁곤": 8302,
      "▁바란": 8303,
      "됩니다.\n": 8304,
      "동의": 8305,
      "▁극복": 8306,
      "▁데뷔": 8307,
      "계의": 8308,
      "▁첨": 8309,
      "▁있어야": 8310,
      "방을": 8311,
      "▁완성": 8312,
      "▁끝나": 8313,
      "인다.\n": 8314,
      "▁가능하다.\n": 8315,
      "▁굉장": 8316,
      "▁오랜": 8317,
      "▁사과": 8318,
      "스토": 8319,
      "%에": 8320,
      "▁반복": 8321,
      "받고": 8322,
      "▁\"지": 8323,
      "▁뿐만": 8324,
      "▁놀라": 8325,
      "수수": 8326,
      "▁재산": 8327,
      "조를": 8328,
      "▁효과를": 8329,
      "▁청구": 8330,
      "습니": 8331,
      "▁수도권": 8332,
      "▁낳": 8333,
      "▁연간": 8334,
      "음이": 8335,
      "국가": 8336,
      "지면": 8337,
      "▁콜": 8338,
      "▁보건": 8339,
      "제에": 8340,
      "이지만": 8341,
      "▁이용해": 8342,
      "절한": 8343,
      "▁때,": 8344,
      "▁전용": 8345,
      "▁다음과": 8346,
      "▁밝힌": 8347,
      "▁196": 8348,
      "▁짜": 8349,
      "▁흡": 8350,
      "▁트위터": 8351,
      "▁마음이": 8352,
      "▁그녀의": 8353,
      "바이": 8354,
      "했다\"고": 8355,
      "▁가득": 8356,
      "▁조합": 8357,
      "▁불가능": 8358,
      "▁좋겠": 8359,
      "▁논란이": 8360,
      "상에서": 8361,
      "▁현대차": 8362,
      "간에": 8363,
      "▁데이터": 8364,
      "릭터": 8365,
      "▁있다면": 8366,
      "▁삶의": 8367,
      "▁지원을": 8368,
      "▁미리": 8369,
      "▁선진": 8370,
      "▁열심히": 8371,
      "▁상호": 8372,
      "▁인권": 8373,
      "▁제3": 8374,
      "▁펀드": 8375,
      "지기": 8376,
      "▁모집": 8377,
      "▁공모": 8378,
      "다'는": 8379,
      "▁공사": 8380,
      "화와": 8381,
      "▁찾는": 8382,
      "▁조치": 8383,
      "▁혐의를": 8384,
      "▁나머지": 8385,
      "▁입주": 8386,
      "관에서": 8387,
      "대출": 8388,
      "▁설계": 8389,
      "▁효율": 8390,
      "서가": 8391,
      "일리": 8392,
      "▁내세": 8393,
      "▁문을": 8394,
      "▁류현": 8395,
      "당을": 8396,
      "조건": 8397,
      "▁최저": 8398,
      "놓고": 8399,
      "▁대로": 8400,
      "리오": 8401,
      "▁비밀": 8402,
      "▁포함한": 8403,
      "▁발표했다.\n": 8404,
      "▁것.\n": 8405,
      "인들의": 8406,
      "▁느껴": 8407,
      "장애": 8408,
      "했으며": 8409,
      "트가": 8410,
      "안타": 8411,
      "▁컴퓨터": 8412,
      "사랑": 8413,
      "▁발표한": 8414,
      "▁새벽": 8415,
      "점은": 8416,
      "▁연계": 8417,
      "주로": 8418,
      "하이": 8419,
      "군이": 8420,
      "▁왼": 8421,
      "▁발생한": 8422,
      "이기도": 8423,
      "la": 8424,
      "▁1,": 8425,
      "▁2014년": 8426,
      "▁의심": 8427,
      "ch": 8428,
      "▁나오고": 8429,
      "▁근데": 8430,
      "께서": 8431,
      "▁35": 8432,
      "▁아름다운": 8433,
      "했으며,": 8434,
      "▁깊은": 8435,
      "보니": 8436,
      "▁평소": 8437,
      "물의": 8438,
      "▁파이": 8439,
      "시오": 8440,
      "▁폴": 8441,
      "▁때마다": 8442,
      "뿐만": 8443,
      "▁가서": 8444,
      ".co.kr": 8445,
      "▁지금은": 8446,
      "▁기능을": 8447,
      "▁직후": 8448,
      "▁그게": 8449,
      "▁철학": 8450,
      "액은": 8451,
      "▁무엇보다": 8452,
      "▁민주통합": 8453,
      "마저": 8454,
      "▁모아": 8455,
      "▁맹": 8456,
      "▁경기를": 8457,
      "▁자아": 8458,
      "명과": 8459,
      "가에": 8460,
      "▁캐릭터": 8461,
      "▁갖추": 8462,
      "부,": 8463,
      "et": 8464,
      "▁앱": 8465,
      "▁등에서": 8466,
      "▁앨": 8467,
      "액을": 8468,
      "▁운전": 8469,
      "기록": 8470,
      "▁공천": 8471,
      "위원장": 8472,
      "▁실질": 8473,
      "▁진보": 8474,
      "▁쳐": 8475,
      "하겠다고": 8476,
      "▁때까지": 8477,
      "▁성폭": 8478,
      "▁70": 8479,
      "▁지역의": 8480,
      "▁강력한": 8481,
      "단지": 8482,
      "▁명이": 8483,
      "▁충남": 8484,
      "▁리더": 8485,
      "시대": 8486,
      "▁태양": 8487,
      "▁폭발": 8488,
      "▁적극적으로": 8489,
      "▁그러면": 8490,
      "▁북한이": 8491,
      "'이라고": 8492,
      "11": 8493,
      "▁진술": 8494,
      "트의": 8495,
      "▁특허": 8496,
      "류를": 8497,
      "▁들었": 8498,
      "▁31일": 8499,
      "60": 8500,
      "▁기준으로": 8501,
      "%가": 8502,
      "등급": 8503,
      "피언": 8504,
      "▁플레이": 8505,
      "▁편의": 8506,
      "▁이재": 8507,
      "▁굉장히": 8508,
      "들로": 8509,
      "st": 8510,
      "▁의미를": 8511,
      "시고": 8512,
      "▁사장": 8513,
      "▁긴급": 8514,
      "뉴시스": 8515,
      "▁이내": 8516,
      "▁받지": 8517,
      "▁도움을": 8518,
      "조직": 8519,
      "▁있으면": 8520,
      "▁척": 8521,
      "하고자": 8522,
      "도와": 8523,
      "▁이때": 8524,
      "▁관광객": 8525,
      "▁밖에": 8526,
      "▁돕": 8527,
      "신이": 8528,
      "▁목적": 8529,
      "다니": 8530,
      "부문": 8531,
      "▁김정": 8532,
      "▁해소": 8533,
      "▁웨": 8534,
      "▁검사": 8535,
      "▁말고": 8536,
      "▁덜": 8537,
      "▁여기서": 8538,
      "▁의식": 8539,
      "션을": 8540,
      "▁교체": 8541,
      "명한": 8542,
      "▁직장": 8543,
      "만한": 8544,
      "▁인하": 8545,
      "▁.": 8546,
      "사인": 8547,
      "연금": 8548,
      "▁상위": 8549,
      "직원": 8550,
      "▁못해": 8551,
      "▁빅": 8552,
      "▁이것은": 8553,
      "▁동반": 8554,
      "바로": 8555,
      "▁거예": 8556,
      "▁아버지": 8557,
      "정으로": 8558,
      "▁개막": 8559,
      "▁발사": 8560,
      "▁3개": 8561,
      "연구소": 8562,
      "코리아": 8563,
      "리적": 8564,
      "챔피언": 8565,
      "▁올랐다.\n": 8566,
      "수,": 8567,
      "▁승리": 8568,
      "▁자체가": 8569,
      "▁정기": 8570,
      "▁멋": 8571,
      "화,": 8572,
      "▁가까운": 8573,
      "▁축소": 8574,
      "▁싫": 8575,
      "▁런던": 8576,
      "권이": 8577,
      "회장": 8578,
      "▁예상된다.\n": 8579,
      "▁영업이익": 8580,
      "▁지구": 8581,
      "▁엄청": 8582,
      "▁완벽": 8583,
      "▁관계를": 8584,
      "▁갤": 8585,
      "▁돌려": 8586,
      "▁개성": 8587,
      "▁등과": 8588,
      "▁해양": 8589,
      "▁오픈": 8590,
      "▁이들의": 8591,
      "▁일어": 8592,
      "▁초반": 8593,
      "진의": 8594,
      "▁아니면": 8595,
      "▁없고": 8596,
      "▁안에서": 8597,
      "▁소방": 8598,
      "▁대표팀": 8599,
      "영은": 8600,
      "▁영역": 8601,
      "▁경찰에": 8602,
      "으나,": 8603,
      "▁조사를": 8604,
      "▁디지털": 8605,
      "네.": 8606,
      "락을": 8607,
      "▁그러니까": 8608,
      "ig": 8609,
      "공업": 8610,
      "나가": 8611,
      "▁소비자": 8612,
      "키로": 8613,
      "▁오르": 8614,
      "▁예를": 8615,
      "했기": 8616,
      "▁위기": 8617,
      "▁SBS": 8618,
      "▁구체적인": 8619,
      "▁머물": 8620,
      "▁했지만": 8621,
      "▁고위": 8622,
      "▁프로그램을": 8623,
      "시켰다.\n": 8624,
      "▁있었다.": 8625,
      "▁전해졌다.\n": 8626,
      "▁전개": 8627,
      "▁제일": 8628,
      "▁쉽지": 8629,
      "▁공약": 8630,
      "▁결승": 8631,
      "▁주의": 8632,
      "▁사람들의": 8633,
      "▁입을": 8634,
      "▁'이": 8635,
      "히는": 8636,
      "▁임금": 8637,
      "▁아닐": 8638,
      "력에": 8639,
      "듯이": 8640,
      "요,": 8641,
      "▁개입": 8642,
      "식으로": 8643,
      "▁고개를": 8644,
      "▁커피": 8645,
      "▁것\"이라며": 8646,
      "▁커뮤니": 8647,
      "▁대변인은": 8648,
      "▁유엔": 8649,
      "▁뉴스\n": 8650,
      "전의": 8651,
      "질이": 8652,
      "▁집에": 8653,
      "▁2015년": 8654,
      "▁있지만,": 8655,
      "▁빠른": 8656,
      "▁딱": 8657,
      "서의": 8658,
      "▁말하는": 8659,
      "안은": 8660,
      "▁V": 8661,
      "상과": 8662,
      "▁떨어진": 8663,
      "▁않겠": 8664,
      "▁제품을": 8665,
      "▁넥": 8666,
      "▁제목": 8667,
      "▁프리미": 8668,
      "▁수많은": 8669,
      "호가": 8670,
      "파크": 8671,
      "▁초청": 8672,
      "기획": 8673,
      "▁지자": 8674,
      "시티": 8675,
      "▁나갈": 8676,
      "▁물러": 8677,
      "▁모여": 8678,
      "▁누리": 8679,
      "▁페이스": 8680,
      "▁잇따": 8681,
      "▁특별한": 8682,
      "▁자동": 8683,
      "어요.": 8684,
      "▁새롭게": 8685,
      "▁상처": 8686,
      "구역": 8687,
      "단에": 8688,
      "NS": 8689,
      "스에": 8690,
      "이로": 8691,
      "▁수수": 8692,
      "선에": 8693,
      "▁떠올": 8694,
      "▁있으": 8695,
      "▁희생": 8696,
      "▁이정": 8697,
      "▁진입": 8698,
      "▁아닌가": 8699,
      "르크": 8700,
      "▁결코": 8701,
      "째,": 8702,
      "▁살고": 8703,
      "▁칠": 8704,
      "▁올려": 8705,
      "▁쓰는": 8706,
      "▁썼": 8707,
      "▁임시": 8708,
      "▁두산": 8709,
      "활동을": 8710,
      "들어": 8711,
      "▁위치한": 8712,
      "드로": 8713,
      "▁가을": 8714,
      "했는데": 8715,
      "▁동의": 8716,
      "▁그려": 8717,
      "▁인기를": 8718,
      "▁4년": 8719,
      "아버": 8720,
      "어로": 8721,
      "▁복귀": 8722,
      "사람": 8723,
      "▁보이지": 8724,
      "▁깜": 8725,
      "심이": 8726,
      "세로": 8727,
      "▁회담": 8728,
      "▁차원에서": 8729,
      "▁아동": 8730,
      "▁담은": 8731,
      "석을": 8732,
      "▁성적": 8733,
      "▁주문": 8734,
      "북한": 8735,
      "▁평가를": 8736,
      "해양": 8737,
      "\",": 8738,
      "시키고": 8739,
      "▁훌": 8740,
      "▁초기": 8741,
      "운영": 8742,
      "사건": 8743,
      "▁비정": 8744,
      "봤다.\n": 8745,
      "겠습니다.\n": 8746,
      "▁부진": 8747,
      "▁홈런": 8748,
      "ed": 8749,
      "의원": 8750,
      "▁동료": 8751,
      "인,": 8752,
      "▁당부": 8753,
      "재가": 8754,
      "트남": 8755,
      "▁멈": 8756,
      "류의": 8757,
      "il": 8758,
      "om": 8759,
      "▁자리에서": 8760,
      "▁이들이": 8761,
      "▁거기": 8762,
      "24": 8763,
      "비아": 8764,
      "▁이른바": 8765,
      "▁취득": 8766,
      "드리": 8767,
      "▁김성": 8768,
      "▁하다.\n": 8769,
      "▁패션": 8770,
      "진흥": 8771,
      "▁원래": 8772,
      "▁효과가": 8773,
      "▁야구": 8774,
      "▁4대": 8775,
      "▁돌파": 8776,
      "▁서울대": 8777,
      "▁대표적인": 8778,
      "▁체계": 8779,
      "시즌": 8780,
      "요?": 8781,
      "▁봉사": 8782,
      "축구": 8783,
      "▁병원": 8784,
      "▁경향": 8785,
      "▁하반기": 8786,
      "▁주제로": 8787,
      "▁가로": 8788,
      "▁그러면서": 8789,
      "▁압박": 8790,
      "▁가능성을": 8791,
      "▁남은": 8792,
      "▁못할": 8793,
      "▁사랑을": 8794,
      "▁사퇴": 8795,
      "라운드": 8796,
      "판을": 8797,
      "해주": 8798,
      "▁할머니": 8799,
      "▁참석한": 8800,
      "가구": 8801,
      "▁먹고": 8802,
      "금리": 8803,
      "▁웹": 8804,
      "▁정확한": 8805,
      "▁나올": 8806,
      "▁미술": 8807,
      "식은": 8808,
      "▁옮겨": 8809,
      "사들이": 8810,
      "25": 8811,
      "▁좋다.\n": 8812,
      "범죄": 8813,
      "▁상장": 8814,
      "주민": 8815,
      "티브": 8816,
      "▁동물": 8817,
      "내가": 8818,
      "공원": 8819,
      "▁입고": 8820,
      "▁임명": 8821,
      "▁융": 8822,
      "▁예측": 8823,
      "어버": 8824,
      "▁차이가": 8825,
      "▁관람": 8826,
      "널리": 8827,
      "▁식품": 8828,
      "▁가까이": 8829,
      "▁아쉬": 8830,
      "▁발굴": 8831,
      "TA": 8832,
      "▁꾸준히": 8833,
      "▁지시": 8834,
      "▁샤": 8835,
      "자원": 8836,
      "억원의": 8837,
      "기구": 8838,
      "연합뉴스": 8839,
      "사일": 8840,
      "▁점점": 8841,
      "수도": 8842,
      "▁도와": 8843,
      "▁1조": 8844,
      "▁고양": 8845,
      "▁삭": 8846,
      "▁생태": 8847,
      "▁않도록": 8848,
      "▁과연": 8849,
      "노조": 8850,
      "인데,": 8851,
      "▁무역": 8852,
      "▁근본": 8853,
      "▁이틀": 8854,
      "▁뭔": 8855,
      "▁수비": 8856,
      "대상": 8857,
      "미를": 8858,
      "▁돌아가": 8859,
      "▁직업": 8860,
      "▁피해를": 8861,
      "▁캠프": 8862,
      "m2": 8863,
      "▁카메라": 8864,
      "무현": 8865,
      "▁위로": 8866,
      "▁월드컵": 8867,
      "▁이로": 8868,
      "▁탁": 8869,
      "▁활약": 8870,
      "▁내용이": 8871,
      "▁궁금": 8872,
      "▁안보": 8873,
      "▁노출": 8874,
      "▁응답": 8875,
      "견을": 8876,
      "▁아무리": 8877,
      "시,": 8878,
      "ou": 8879,
      "고는": 8880,
      "오늘": 8881,
      "▁계획을": 8882,
      "▁총선": 8883,
      "▁횡": 8884,
      "▁여부를": 8885,
      "▁심사": 8886,
      "다\"라고": 8887,
      "받아": 8888,
      "▁행위": 8889,
      "속도로": 8890,
      "▁개의": 8891,
      "▁흘러": 8892,
      "▁아는": 8893,
      "▁신설": 8894,
      "연구원": 8895,
      "▁이외": 8896,
      "수사": 8897,
      "▁에서": 8898,
      "▁끈": 8899,
      "▁여의": 8900,
      "ht": 8901,
      "▁안내": 8902,
      "▁이탈리아": 8903,
      "▁그랬": 8904,
      "▁4개": 8905,
      "망을": 8906,
      "▁수립": 8907,
      "▁이론": 8908,
      "▁곳이": 8909,
      "▁그만": 8910,
      "80": 8911,
      "▁동원": 8912,
      "석이": 8913,
      "▁금리": 8914,
      "▁대우": 8915,
      "산물": 8916,
      "다\"는": 8917,
      "다면,": 8918,
      "액이": 8919,
      "▁치열": 8920,
      "가로": 8921,
      "▁생각한": 8922,
      "▁재무": 8923,
      "▁당초": 8924,
      "▁이벤트": 8925,
      "▁것인가": 8926,
      "▁생명": 8927,
      "▁유리": 8928,
      "▁시는": 8929,
      "▁대북": 8930,
      "▁노력을": 8931,
      "▁문제에": 8932,
      "am": 8933,
      "▁그래도": 8934,
      "▁선임": 8935,
      "▁단독": 8936,
      "▁현금": 8937,
      "▁1억": 8938,
      "미국": 8939,
      "▁화려": 8940,
      "▁내다": 8941,
      "▁상상": 8942,
      "▁정책을": 8943,
      "▁상대적으로": 8944,
      "▁한화": 8945,
      "배를": 8946,
      "▁사건을": 8947,
      "▁기사": 8948,
      "▁전투": 8949,
      "▁국정원": 8950,
      "▁흉": 8951,
      "▁소녀": 8952,
      "▁학부모": 8953,
      "재단": 8954,
      "▁기부": 8955,
      "▁알게": 8956,
      "상황": 8957,
      "▁아빠": 8958,
      "력으로": 8959,
      "▁이같이": 8960,
      "▁권한": 8961,
      "▁것\"": 8962,
      "▁노인": 8963,
      "쪽으로": 8964,
      "▁센": 8965,
      "▁씨가": 8966,
      "▁나눠": 8967,
      "▁유도": 8968,
      "▁발휘": 8969,
      "져야": 8970,
      "결과": 8971,
      "▁방송된": 8972,
      "▁실험": 8973,
      "사무": 8974,
      "▁부탁": 8975,
      "죠.": 8976,
      "▁2006년": 8977,
      "▁힘든": 8978,
      "▁표시": 8979,
      "▁모르는": 8980,
      "▁그럴": 8981,
      "법인": 8982,
      "▁없다": 8983,
      "▁얼굴을": 8984,
      "단한": 8985,
      "▁\t\t\t\t": 8986,
      "▁관측": 8987,
      "▁적은": 8988,
      "▁방법을": 8989,
      "▁주거": 8990,
      "▁자율": 8991,
      "▁성과를": 8992,
      "함이": 8993,
      "▁머리": 8994,
      "▁다음달": 8995,
      "▁거주": 8996,
      "▁매입": 8997,
      "일본": 8998,
      "피스": 8999,
      "▁1인": 9000,
      "제한": 9001,
      "▁칭": 9002,
      "되며": 9003,
      "▁마감": 9004,
      "▁갖춘": 9005,
      "권에": 9006,
      "gt;": 9007,
      "lt;": 9008,
      "▁두려": 9009,
      "▁위하여": 9010,
      "사한": 9011,
      "▁따뜻": 9012,
      "법에": 9013,
      "이사": 9014,
      "▁헬": 9015,
      "▁크리스": 9016,
      "▁점이": 9017,
      "해온": 9018,
      "~3": 9019,
      "&gt;": 9020,
      "하면서도": 9021,
      "▁선두": 9022,
      "▁설정": 9023,
      "▁추구": 9024,
      "줬다.\n": 9025,
      "▁개편": 9026,
      "상,": 9027,
      "▁나도": 9028,
      "▁이제는": 9029,
      "서,": 9030,
      "적으로는": 9031,
      "▁중간": 9032,
      "▁친환경": 9033,
      "▁띄": 9034,
      "스티": 9035,
      "훼손": 9036,
      "▁이슈": 9037,
      "▁김종": 9038,
      "▁이웃": 9039,
      "▁장관은": 9040,
      "▁슈퍼": 9041,
      "지어": 9042,
      "▁후보의": 9043,
      "와는": 9044,
      "하려고": 9045,
      "▁누구나": 9046,
      "▁부과": 9047,
      "부터는": 9048,
      "▁채택": 9049,
      "국을": 9050,
      "▁부르": 9051,
      "▁\"어": 9052,
      "▁개별": 9053,
      "▁부처": 9054,
      "▁어깨": 9055,
      "럼프": 9056,
      "▁저희": 9057,
      "지에서": 9058,
      "▁사장은": 9059,
      "케이션": 9060,
      "란드": 9061,
      "▁제공하는": 9062,
      "▁생긴": 9063,
      "▁자살": 9064,
      "▁2만": 9065,
      "▁주관": 9066,
      "▁묵": 9067,
      "▁한반도": 9068,
      "했지만,": 9069,
      "▁5개": 9070,
      "다시": 9071,
      "▁강제": 9072,
      "▁결합": 9073,
      "▁기술을": 9074,
      "▁낭": 9075,
      "▁형사": 9076,
      "▁t": 9077,
      "▁감독이": 9078,
      "▁자원": 9079,
      "▁거론": 9080,
      "▁시장의": 9081,
      "▁거짓": 9082,
      "▁동아": 9083,
      "학을": 9084,
      "시험": 9085,
      "▁얘기를": 9086,
      "선은": 9087,
      "▁있는데,": 9088,
      "▁농업": 9089,
      "▁심각한": 9090,
      "공동": 9091,
      "▁세상을": 9092,
      "실에": 9093,
      "▁징역": 9094,
      "책을": 9095,
      "▁이끌어": 9096,
      "▁통해서": 9097,
      "치게": 9098,
      "▁선생님": 9099,
      "▁등도": 9100,
      "▁무시": 9101,
      "▁상반기": 9102,
      "▁연습": 9103,
      "▁변화를": 9104,
      "▁서민": 9105,
      "▁내고": 9106,
      "▁기회": 9107,
      "▁창원": 9108,
      "▁뒤에": 9109,
      "▁대학생": 9110,
      "▁80": 9111,
      "생산": 9112,
      "수한": 9113,
      "작용": 9114,
      "▁45": 9115,
      "▁부상": 9116,
      "▁누군": 9117,
      "니,": 9118,
      "▁나타난": 9119,
      "16": 9120,
      "▁죽음": 9121,
      "▁고향": 9122,
      "▁취소": 9123,
      "국에": 9124,
      "▁검색": 9125,
      "▁깔": 9126,
      "▁집을": 9127,
      "▁수업": 9128,
      "관련": 9129,
      "▁50%": 9130,
      "실이": 9131,
      "▁질문에": 9132,
      "간다.\n": 9133,
      "▁듯한": 9134,
      "화로": 9135,
      "▁생각하는": 9136,
      "▁수정": 9137,
      "▁당장": 9138,
      "특별": 9139,
      "▁밟": 9140,
      "▁포함해": 9141,
      "▁운용": 9142,
      "▁역대": 9143,
      "위기": 9144,
      "▁김태": 9145,
      "동에": 9146,
      "▁시장은": 9147,
      "▁승리를": 9148,
      "▁스토": 9149,
      "▁힘이": 9150,
      "%의": 9151,
      "▁보조": 9152,
      "▁32": 9153,
      "▁매매": 9154,
      "주일": 9155,
      "▁섭": 9156,
      "▁보안": 9157,
      "▁곳곳": 9158,
      "▁대표가": 9159,
      "▁공직": 9160,
      "▁있음을": 9161,
      "▁프로젝트": 9162,
      "▁챔피언": 9163,
      "률은": 9164,
      "▁우려가": 9165,
      "▁검증": 9166,
      "모델": 9167,
      "연맹": 9168,
      "▁자격": 9169,
      "거든요.\n": 9170,
      "▁예고": 9171,
      "13": 9172,
      "▁모르겠": 9173,
      "▁배출": 9174,
      "▁싶어": 9175,
      "▁33": 9176,
      "전거": 9177,
      "ol": 9178,
      "▁쌀": 9179,
      "▁않게": 9180,
      "▁들었다.\n": 9181,
      "▁육성": 9182,
      "▁분류": 9183,
      "▁&lt;": 9184,
      "▁걸어": 9185,
      "직한": 9186,
      "타를": 9187,
      "투데이": 9188,
      "▁기자회": 9189,
      "투자증권": 9190,
      "리게": 9191,
      "재는": 9192,
      "세에": 9193,
      "▁때도": 9194,
      "럭시": 9195,
      "혔다.\n": 9196,
      "전쟁": 9197,
      "!\"\n": 9198,
      "▁숲": 9199,
      "▁마침": 9200,
      "▁성격": 9201,
      "▁보였": 9202,
      "▁알려진": 9203,
      "▁답변": 9204,
      "▁베트남": 9205,
      "▁말은": 9206,
      "▁긴장": 9207,
      "▁분명히": 9208,
      "▁나아가": 9209,
      "기사": 9210,
      "▁값": 9211,
      "▁어울": 9212,
      "▁괜": 9213,
      "▁자극": 9214,
      "석은": 9215,
      "▁나이": 9216,
      "▁연말": 9217,
      "▁디자": 9218,
      "▁행사를": 9219,
      "▁몰아": 9220,
      "▁줄어들": 9221,
      "▁상임": 9222,
      "▁주차": 9223,
      "▁쫓": 9224,
      "▁가치를": 9225,
      "교육청": 9226,
      "야말로": 9227,
      "인터": 9228,
      "▁바닥": 9229,
      "신의": 9230,
      "주기": 9231,
      "▁상당히": 9232,
      "가격": 9233,
      "▁관련,": 9234,
      "수와": 9235,
      "령을": 9236,
      "▁적발": 9237,
      "우드": 9238,
      "▁폐지": 9239,
      "▁춘": 9240,
      "▁아니라,": 9241,
      "▁비행": 9242,
      "▁곳에": 9243,
      "▁주력": 9244,
      "▁36": 9245,
      "공개": 9246,
      "골을": 9247,
      "▁유출": 9248,
      "▁사실은": 9249,
      "▁뮤지": 9250,
      "▁하였다.\n": 9251,
      "▁구분": 9252,
      "장관": 9253,
      "▁높이": 9254,
      "▁대하여": 9255,
      "▁네트워크": 9256,
      "전은": 9257,
      "재판": 9258,
      "▁이라며": 9259,
      "▁그러한": 9260,
      "▁최선을": 9261,
      "▁단속": 9262,
      "▁제거": 9263,
      "▁호소": 9264,
      "▁시작으로": 9265,
      "동이": 9266,
      "▁그만큼": 9267,
      "인에": 9268,
      "▁민주통합당": 9269,
      "소에서": 9270,
      "▁그렇지": 9271,
      "▁'아": 9272,
      "▁쇼핑": 9273,
      "▁분위기": 9274,
      "▁필요하": 9275,
      "▁완화": 9276,
      "키는": 9277,
      "행정": 9278,
      "대와": 9279,
      "이버": 9280,
      "70": 9281,
      "▁대부분의": 9282,
      "▁메이저": 9283,
      "▁실무": 9284,
      "량의": 9285,
      "분야": 9286,
      "자료": 9287,
      "▁KB": 9288,
      "▁진단": 9289,
      "들,": 9290,
      "▁경선": 9291,
      "▁점차": 9292,
      "▁브라질": 9293,
      "위원회는": 9294,
      "인들은": 9295,
      "▁o": 9296,
      "받을": 9297,
      "▁몽": 9298,
      "▁기업이": 9299,
      "▁거리": 9300,
      "▁원을": 9301,
      "▁업종": 9302,
      "▁경고": 9303,
      "▁그곳": 9304,
      "▁총리": 9305,
      "▁지휘": 9306,
      "▁맞추": 9307,
      "유가": 9308,
      "았다.": 9309,
      "▁지분": 9310,
      "▁활발": 9311,
      "▁보낸": 9312,
      "드러": 9313,
      "설을": 9314,
      "스포츠": 9315,
      "▁195": 9316,
      "소로": 9317,
      "부로": 9318,
      "억원으로": 9319,
      "▁쪽으로": 9320,
      "▁외환": 9321,
      "▁탄생": 9322,
      "▁고급": 9323,
      "▁후원": 9324,
      "▁자료를": 9325,
      "▁소화": 9326,
      "분께": 9327,
      "이닝": 9328,
      "▁교사": 9329,
      "▁완료": 9330,
      "▁구글": 9331,
      "▁조기": 9332,
      "▁6개월": 9333,
      "▁충북": 9334,
      "주에": 9335,
      "지사": 9336,
      "▁그들이": 9337,
      "▁좁": 9338,
      "▁페이스북": 9339,
      "▁생존": 9340,
      "포를": 9341,
      "▁이스": 9342,
      "▁상황에": 9343,
      "▁시장에": 9344,
      "▁취재": 9345,
      "호텔": 9346,
      "▁주가": 9347,
      "제와": 9348,
      "news": 9349,
      "만은": 9350,
      "ac": 9351,
      "경쟁": 9352,
      "▁묶": 9353,
      "▁말에": 9354,
      "공간": 9355,
      "▁의미가": 9356,
      "▁사용하는": 9357,
      "▁일이다.\n": 9358,
      "수에": 9359,
      "▁이것이": 9360,
      "▁아르": 9361,
      "▁웃음을": 9362,
      "▁풀어": 9363,
      "▁소리를": 9364,
      "▁확장": 9365,
      "지자": 9366,
      "▁공장": 9367,
      "▁복잡": 9368,
      "식의": 9369,
      "▁줄어": 9370,
      "▁시장에서": 9371,
      "▁잡고": 9372,
      "▁끌고": 9373,
      "▁위원장은": 9374,
      "의료": 9375,
      "▁말할": 9376,
      "함에": 9377,
      "먼트": 9378,
      "▁출판": 9379,
      "▁간의": 9380,
      "건축": 9381,
      "▁들려": 9382,
      "크로": 9383,
      "▁게시": 9384,
      "▁떠오": 9385,
      "▁무너": 9386,
      "지검": 9387,
      "▁시기": 9388,
      "▁상황이다.\n": 9389,
      "▁즐길": 9390,
      "▁입학": 9391,
      "▁건립": 9392,
      "▁이같은": 9393,
      "▁후에": 9394,
      "다.\"\n": 9395,
      "각을": 9396,
      "▁신한": 9397,
      "부산": 9398,
      "EO": 9399,
      "억달러": 9400,
      "-0": 9401,
      "웨어": 9402,
      "▁말이다.\n": 9403,
      "영상": 9404,
      "직을": 9405,
      "중국": 9406,
      "었습니다.\n": 9407,
      "▁아무런": 9408,
      "▁먹는": 9409,
      "▁적극적인": 9410,
      "▁올렸다.\n": 9411,
      "니어": 9412,
      "▁법무": 9413,
      "▁이거": 9414,
      "▁저지": 9415,
      "있다.\n": 9416,
      "세는": 9417,
      "▁내리": 9418,
      "▁추가로": 9419,
      "량은": 9420,
      "▁상태다.\n": 9421,
      "▁드러났다.\n": 9422,
      "▁협상": 9423,
      "프로그램": 9424,
      "▁기타": 9425,
      "▁정도의": 9426,
      "▁쓰고": 9427,
      "삼성": 9428,
      "▁블랙": 9429,
      "테인": 9430,
      "처리": 9431,
      "▁뚜": 9432,
      "▁알려져": 9433,
      "기능": 9434,
      "시장에서": 9435,
      "▁구성된": 9436,
      "면에": 9437,
      "▁세워": 9438,
      "▁사용할": 9439,
      "▁어떠": 9440,
      "이던": 9441,
      "▁빠르게": 9442,
      "▁능력을": 9443,
      "축은행": 9444,
      "결을": 9445,
      "▁포항": 9446,
      "▁끝난": 9447,
      "▁혜택을": 9448,
      "▁조용": 9449,
      "▁분위기를": 9450,
      "▁된다는": 9451,
      "▁인증": 9452,
      "▁s": 9453,
      "돼야": 9454,
      "민의": 9455,
      "심의": 9456,
      "'과": 9457,
      "▁스타일": 9458,
      "▁이종": 9459,
      "▁털어": 9460,
      "▁공개된": 9461,
      "▁들어서": 9462,
      "▁분리": 9463,
      "▁아이디어": 9464,
      "▁1위를": 9465,
      "판매": 9466,
      "▁하나로": 9467,
      "▁박정": 9468,
      "회,": 9469,
      "▁대폭": 9470,
      "▁지역에": 9471,
      "TN": 9472,
      "▁최대한": 9473,
      "▁엉": 9474,
      "▁한나라당": 9475,
      "란히": 9476,
      "▁아직도": 9477,
      "id": 9478,
      "▁본격적인": 9479,
      "▁자리에": 9480,
      "14": 9481,
      "▁투수": 9482,
      "▁경우는": 9483,
      "▁호흡": 9484,
      "▁일상": 9485,
      "▁한마": 9486,
      "해가": 9487,
      "유를": 9488,
      "▁말한": 9489,
      "계에": 9490,
      "관의": 9491,
      "▁시장을": 9492,
      "▁움직임": 9493,
      "▁이유가": 9494,
      "기까지": 9495,
      "'라고": 9496,
      "▁민주주의": 9497,
      "언론": 9498,
      "▁10시": 9499,
      "▁2005년": 9500,
      "▁수십": 9501,
      "▁운영하는": 9502,
      "▁바꿔": 9503,
      "됐다고": 9504,
      "법은": 9505,
      "▁계기로": 9506,
      "▁따로": 9507,
      "▁경기에서": 9508,
      "▁2016년": 9509,
      "▁내린": 9510,
      "▁경우,": 9511,
      "▁전문가들은": 9512,
      "▁내용의": 9513,
      "▁경제적": 9514,
      "검사": 9515,
      "▁있는지": 9516,
      "관,": 9517,
      "▁뛰어난": 9518,
      "IA": 9519,
      "▁만남": 9520,
      "▁앨범": 9521,
      "\"라며": 9522,
      "▁포스코": 9523,
      "▁컬": 9524,
      "▁꿈을": 9525,
      "5000": 9526,
      "▁계산": 9527,
      "수익": 9528,
      "건이": 9529,
      "회의에서": 9530,
      "운용": 9531,
      "▁고발": 9532,
      "관에": 9533,
      "▁필수": 9534,
      "▁높다.\n": 9535,
      "잖아요.\n": 9536,
      "▁선호": 9537,
      "상태": 9538,
      "▁이행": 9539,
      "▁기존의": 9540,
      "▁브리": 9541,
      "▁국회의원": 9542,
      "무역": 9543,
      "요\n": 9544,
      "서트": 9545,
      "▁이래": 9546,
      "▁완전": 9547,
      "▁교육을": 9548,
      "아,": 9549,
      "모를": 9550,
      "독교": 9551,
      "▁조언": 9552,
      "▁접수": 9553,
      "▁일자": 9554,
      "▁길이": 9555,
      "▁정비": 9556,
      "숨을": 9557,
      "▁관련한": 9558,
      "안의": 9559,
      "▁어려움을": 9560,
      "▁많았": 9561,
      "▁CJ": 9562,
      "▁충돌": 9563,
      "▁연합": 9564,
      "▁시장이": 9565,
      "▁일제": 9566,
      "'와": 9567,
      "▁충격": 9568,
      "▁다섯": 9569,
      "▁늘어난": 9570,
      "200": 9571,
      "▁분석했다.\n": 9572,
      "봉사": 9573,
      "▁혼란": 9574,
      "▁500": 9575,
      "▁중에서": 9576,
      "체는": 9577,
      "▁194": 9578,
      "▁회장이": 9579,
      "▁고백": 9580,
      "▁2000": 9581,
      "법이": 9582,
      "주,": 9583,
      "자도": 9584,
      "었고,": 9585,
      "어져": 9586,
      "▁특검": 9587,
      "가락": 9588,
      "▁체포": 9589,
      "▁감독의": 9590,
      "시와": 9591,
      "▁입은": 9592,
      "▁쥐": 9593,
      "▁센터": 9594,
      "버스": 9595,
      "▁제외한": 9596,
      "▁테러": 9597,
      "▁학생들이": 9598,
      "▁무대": 9599,
      "엑스": 9600,
      "▁피부": 9601,
      "세의": 9602,
      "테크": 9603,
      "▁원자": 9604,
      "▁비판했다.\n": 9605,
      "▁설득": 9606,
      "▁개봉": 9607,
      "▁주최": 9608,
      "▁결과가": 9609,
      "▁맞춤": 9610,
      "▁낼": 9611,
      "▁힐": 9612,
      "▁떼": 9613,
      "▁법정": 9614,
      "▁게다가": 9615,
      "▁가격이": 9616,
      "▁떨어져": 9617,
      "▁사항": 9618,
      "가,": 9619,
      "▁벌써": 9620,
      "▁카페": 9621,
      "▁PC": 9622,
      "▁그에": 9623,
      "행한": 9624,
      "소의": 9625,
      "▁불가피": 9626,
      "차는": 9627,
      "▁어찌": 9628,
      "▁모두가": 9629,
      "인에게": 9630,
      "사업을": 9631,
      "▁얻어": 9632,
      "▁눈이": 9633,
      "내기": 9634,
      "▁집계": 9635,
      "▁필요하다.\n": 9636,
      "▁경우도": 9637,
      "▁다루": 9638,
      "▁지닌": 9639,
      "▁남녀": 9640,
      "▁머리를": 9641,
      "▁분노": 9642,
      "▁섹": 9643,
      "▁올린": 9644,
      "▁기회가": 9645,
      "▁독자": 9646,
      "▁코스피": 9647,
      "▁부품": 9648,
      "17": 9649,
      "▁내일": 9650,
      "호의": 9651,
      "▁확인할": 9652,
      "앞으로": 9653,
      "▁한국은": 9654,
      "이너": 9655,
      "▁셀": 9656,
      "▁\"대": 9657,
      "▁아니고": 9658,
      "었을": 9659,
      "▁부실": 9660,
      "▁리그": 9661,
      "▁경험을": 9662,
      "작권": 9663,
      "분간": 9664,
      "경은": 9665,
      "▁물을": 9666,
      "▁동생": 9667,
      "▁했다고": 9668,
      "재로": 9669,
      "치의": 9670,
      "▁풍부": 9671,
      "전화": 9672,
      "▁좋지": 9673,
      "▁내에": 9674,
      "▁모으": 9675,
      "▁물어": 9676,
      "▁약간": 9677,
      "배우": 9678,
      "▁키워": 9679,
      "▁부사": 9680,
      "▁감정": 9681,
      "세요.\n": 9682,
      "ro": 9683,
      "▁복합": 9684,
      "▁초등학교": 9685,
      "학적": 9686,
      "▁노무현": 9687,
      "▁했습니다.\n": 9688,
      "리트": 9689,
      "▁대처": 9690,
      "▁목표로": 9691,
      "감한": 9692,
      "▁이용할": 9693,
      "▁공개했다.\n": 9694,
      "▁가동": 9695,
      "▁38": 9696,
      "었다고": 9697,
      "▁초대": 9698,
      "▁보여주는": 9699,
      "▁파견": 9700,
      "▁박지": 9701,
      "▁연방": 9702,
      "▁명확": 9703,
      "▁춤": 9704,
      "▁의지를": 9705,
      "▁대리": 9706,
      "▁향상": 9707,
      "-3": 9708,
      "가?\n": 9709,
      "▁조작": 9710,
      "소송": 9711,
      "▁상관": 9712,
      "▁34": 9713,
      "▁만들었다.\n": 9714,
      "▁녹색": 9715,
      "▁내게": 9716,
      "▁트럼프": 9717,
      "문의": 9718,
      "집을": 9719,
      "증이": 9720,
      "이즈": 9721,
      "▁면서": 9722,
      "▁꺾": 9723,
      "▁작업을": 9724,
      "님은": 9725,
      "▁차단": 9726,
      "▁마친": 9727,
      "리어": 9728,
      "데일리": 9729,
      "▁했는데": 9730,
      "짜리": 9731,
      "쇼핑": 9732,
      "현대": 9733,
      "▁틈": 9734,
      "▁그렇다면": 9735,
      "조사를": 9736,
      "▁“그": 9737,
      "음에도": 9738,
      "▁진행된": 9739,
      "복을": 9740,
      "▁유로": 9741,
      "드가": 9742,
      "▁제공한다.\n": 9743,
      "▁합격": 9744,
      "▁선출": 9745,
      "행이": 9746,
      "▁손해": 9747,
      "▁파괴": 9748,
      "▁불리는": 9749,
      "▁심리": 9750,
      "▁d": 9751,
      "안보": 9752,
      "▁쟁": 9753,
      "▁장애인": 9754,
      "▁참고": 9755,
      "▁사로": 9756,
      "www": 9757,
      "▁홍콩": 9758,
      "▁목소리가": 9759,
      "하다\n": 9760,
      "습니까?\n": 9761,
      "▁자전거": 9762,
      "▁인구": 9763,
      "기기": 9764,
      "▁와서": 9765,
      "▁건너": 9766,
      "영업": 9767,
      "▁비정규직": 9768,
      "▁것일": 9769,
      "다'며": 9770,
      "▁계약을": 9771,
      "▁으로": 9772,
      "▁아니었다.\n": 9773,
      "▁2개": 9774,
      "회의를": 9775,
      "▁매수": 9776,
      "▁어쩌": 9777,
      "▁셋": 9778,
      "됐던": 9779,
      "▁내는": 9780,
      "▁수사를": 9781,
      "▁문제로": 9782,
      "▁달아": 9783,
      "▁2천": 9784,
      "▁목소리를": 9785,
      "▁급증": 9786,
      "향을": 9787,
      "▁출입": 9788,
      "▁버스": 9789,
      "▁질병": 9790,
      "▁대기": 9791,
      "형이": 9792,
      "▁실시간": 9793,
      "▁보상": 9794,
      "▁지상": 9795,
      "▁없다\"고": 9796,
      "카오": 9797,
      "▁지하철": 9798,
      "▁이중": 9799,
      "▁적지": 9800,
      "▁들이": 9801,
      "▁텐": 9802,
      "보기": 9803,
      "▁조치를": 9804,
      "대비": 9805,
      "화학": 9806,
      "▁외에": 9807,
      "▁쇠": 9808,
      "면,": 9809,
      "▁비가": 9810,
      "▁보여주": 9811,
      "미디어": 9812,
      "행위": 9813,
      "정상": 9814,
      "니까?\n": 9815,
      "▁살해": 9816,
      "구청": 9817,
      "▁세상": 9818,
      "▁기상": 9819,
      "▁샌": 9820,
      "나이": 9821,
      "▁시작된": 9822,
      "▁\"이번": 9823,
      "실로": 9824,
      "측은": 9825,
      "▁획득": 9826,
      "▁영입": 9827,
      "▁경계": 9828,
      "억원,": 9829,
      "▁300": 9830,
      "▁여수": 9831,
      "▁무기": 9832,
      "▁주지": 9833,
      "▁야당": 9834,
      "가능": 9835,
      "▁많았다.\n": 9836,
      "▁최고위원": 9837,
      "▁하더라도": 9838,
      "▁펴": 9839,
      "▁최우": 9840,
      "▁사건이": 9841,
      "▁수능": 9842,
      "▁매달": 9843,
      "▁악화": 9844,
      "▁YTN": 9845,
      "▁투쟁": 9846,
      "사이트": 9847,
      "▁정체": 9848,
      "▁점이다.\n": 9849,
      "▁작품을": 9850,
      "소비": 9851,
      "중인": 9852,
      "데,": 9853,
      "▁비서": 9854,
      "▁받게": 9855,
      "▁9시": 9856,
      "▁이상이": 9857,
      "▁유명한": 9858,
      "라엘": 9859,
      "▁덮": 9860,
      "▁맡은": 9861,
      "▁표준": 9862,
      "▁어제": 9863,
      "으니까": 9864,
      "▁국내외": 9865,
      "▁풀이": 9866,
      "▁통제": 9867,
      "▁우주": 9868,
      "▁내용은": 9869,
      "▁전화를": 9870,
      "토록": 9871,
      "자유": 9872,
      "▁있다\n": 9873,
      "지수": 9874,
      "류가": 9875,
      "▁하지만,": 9876,
      "영이": 9877,
      "ad": 9878,
      "▁취약": 9879,
      "지.\n": 9880,
      "▁내정": 9881,
      "▁여러분": 9882,
      "▁끄": 9883,
      "▁부회": 9884,
      "▁별로": 9885,
      "▁갖는": 9886,
      "권은": 9887,
      "▁아예": 9888,
      "▁강하게": 9889,
      "▁침해": 9890,
      "▁시리즈": 9891,
      "▁신속": 9892,
      "▁돋": 9893,
      "▁기아": 9894,
      "▁훔": 9895,
      "▁형태로": 9896,
      "▁만들기": 9897,
      "▁다이": 9898,
      "▁엄청난": 9899,
      "▁사람들을": 9900,
      "한다\"고": 9901,
      "▁한미": 9902,
      "드라마": 9903,
      "하시": 9904,
      "▁위안": 9905,
      "▁방문해": 9906,
      "▁법인": 9907,
      "▁자치": 9908,
      "▁시내": 9909,
      "▁도덕": 9910,
      "체험": 9911,
      "▁게재": 9912,
      "텔레콤": 9913,
      "조의": 9914,
      "▁진정한": 9915,
      "▁상무": 9916,
      "▁재벌": 9917,
      "▁느낄": 9918,
      "▁연극": 9919,
      "했다\"며": 9920,
      "▁편집": 9921,
      "▁만들고": 9922,
      "TE": 9923,
      "▁현행": 9924,
      "▁원전": 9925,
      "연이": 9926,
      "발을": 9927,
      "▁부담을": 9928,
      "었지만": 9929,
      "▁선배": 9930,
      "▁생활을": 9931,
      "▁깜짝": 9932,
      "되어야": 9933,
      "▁받아들이": 9934,
      "▁호남": 9935,
      "▁알았": 9936,
      "▁공통": 9937,
      "▁해명": 9938,
      "▁고교": 9939,
      "▁열었다.\n": 9940,
      "민주당": 9941,
      "▁붉": 9942,
      "▁10여": 9943,
      "가스": 9944,
      "▁반도": 9945,
      "▁전형": 9946,
      "▁나설": 9947,
      "▁짧은": 9948,
      "▁2004년": 9949,
      "▁공항": 9950,
      "▁접한": 9951,
      "▁사이트": 9952,
      "▁1등": 9953,
      "치로": 9954,
      "▁부채": 9955,
      "▁감염": 9956,
      "▁이르는": 9957,
      ".5%": 9958,
      "▁핫": 9959,
      "▁사로잡": 9960,
      "▁소년": 9961,
      "용차": 9962,
      "he": 9963,
      "▁금메달": 9964,
      "▁현장에서": 9965,
      "군을": 9966,
      "▁그에게": 9967,
      "씨와": 9968,
      "▁쏘": 9969,
      "▁권력": 9970,
      "▁사회의": 9971,
      "▁종료": 9972,
      "▁시범": 9973,
      "진보": 9974,
      "▁사법": 9975,
      "▁낮아": 9976,
      "등록": 9977,
      "▁비즈": 9978,
      "▁이용한": 9979,
      "▁둘러싼": 9980,
      "▁축하": 9981,
      "▁인용": 9982,
      "▁소식을": 9983,
      "▁공포": 9984,
      "▁해주": 9985,
      "▁아우": 9986,
      "▁선박": 9987,
      "▁간담": 9988,
      "▁개방": 9989,
      "▁무려": 9990,
      "영의": 9991,
      "▁절차": 9992,
      "터테인": 9993,
      "▁당사": 9994,
      "▁프리미엄": 9995,
      "팀은": 9996,
      "▁붙잡": 9997,
      "▁조심": 9998,
      "더라": 9999,
      "▁아이폰": 10000,
      "▁이유를": 10001,
      "▁쾌": 10002,
      "▁재개": 10003,
      "▁의혹을": 10004,
      "달라": 10005,
      "▁정규": 10006,
      "패를": 10007,
      "▁3차": 10008,
      "아는": 10009,
      "술을": 10010,
      "▁부분이": 10011,
      "▁평생": 10012,
      "파이": 10013,
      "▁보완": 10014,
      "▁수준의": 10015,
      "▁김정은": 10016,
      "현재": 10017,
      "▁비록": 10018,
      "정과": 10019,
      "문제": 10020,
      "▁잉": 10021,
      "▁적합": 10022,
      "▁뿐이다.\n": 10023,
      "▁150": 10024,
      "▁부장": 10025,
      "음에": 10026,
      "▁때가": 10027,
      "▁방지": 10028,
      "하겠다\"고": 10029,
      "포토": 10030,
      "▁누리꾼": 10031,
      "▁외에도": 10032,
      "▁기계": 10033,
      "▁르": 10034,
      "▁인사를": 10035,
      "▁대화를": 10036,
      "총리": 10037,
      "▁담긴": 10038,
      "▁뜨거운": 10039,
      "▁동네": 10040,
      "▁후보를": 10041,
      "말을": 10042,
      "님을": 10043,
      "어,": 10044,
      "약품": 10045,
      "▁창의": 10046,
      "투표": 10047,
      "▁품질": 10048,
      "우스": 10049,
      "▁가고": 10050,
      "해왔다.\n": 10051,
      "▁저렴": 10052,
      "▁국회에서": 10053,
      "▁언제나": 10054,
      "▁스페인": 10055,
      "▁곧바로": 10056,
      "▁훌륭": 10057,
      "보가": 10058,
      "책임": 10059,
      "물로": 10060,
      "▁끊임": 10061,
      "▁괜찮": 10062,
      "▁여의도": 10063,
      "▁발달": 10064,
      "▁곳은": 10065,
      "▁성남": 10066,
      "놨다.\n": 10067,
      "낸셜": 10068,
      "▁전부터": 10069,
      "민은": 10070,
      "▁올해는": 10071,
      "▁네티즌들은": 10072,
      "ment": 10073,
      "▁김재": 10074,
      "▁기록한": 10075,
      "▁오늘날": 10076,
      "타임": 10077,
      "▁준다.\n": 10078,
      "▁동양": 10079,
      "관계를": 10080,
      "▁의원의": 10081,
      "▁37": 10082,
      "▁지자체": 10083,
      "▁식으로": 10084,
      "끄러": 10085,
      "었고": 10086,
      "▁담겨": 10087,
      "브리": 10088,
      "층의": 10089,
      "▁손에": 10090,
      "박근혜": 10091,
      "▁th": 10092,
      "▁고정": 10093,
      "▁개설": 10094,
      "봐야": 10095,
      "나다": 10096,
      "▁법적": 10097,
      "▁곁": 10098,
      "▁때부터": 10099,
      "문에": 10100,
      "▁능력": 10101,
      "조원": 10102,
      "인도": 10103,
      "나마": 10104,
      "여야": 10105,
      "▁유력": 10106,
      "▁인공": 10107,
      "산이": 10108,
      "▁크다.\n": 10109,
      "▁이건": 10110,
      "▁냄": 10111,
      "매매": 10112,
      "▁놈": 10113,
      "▁김씨는": 10114,
      "여행": 10115,
      "▁대통령과": 10116,
      "▁근대": 10117,
      "▁몰려": 10118,
      "▁소프트": 10119,
      "위에서": 10120,
      "▁강원도": 10121,
      "▁없었던": 10122,
      "▁그걸": 10123,
      "▁수학": 10124,
      "▁배제": 10125,
      "▁이성": 10126,
      "▁결정을": 10127,
      "▁지역에서": 10128,
      "▁안팎": 10129,
      "▁연주": 10130,
      "▁가야": 10131,
      "오고": 10132,
      "▁은퇴": 10133,
      "▁이상을": 10134,
      "▁마찬가지로": 10135,
      "!!": 10136,
      "▁끌었다.\n": 10137,
      "의가": 10138,
      "▁초과": 10139,
      "▁잠재": 10140,
      "▁경찰이": 10141,
      "건강": 10142,
      "▁겁니다.\n": 10143,
      "▁사람들에게": 10144,
      "▁벨": 10145,
      "▁가리": 10146,
      "희는": 10147,
      "▁기독교": 10148,
      "▁컸": 10149,
      "▁것인": 10150,
      "▁전망했다.\n": 10151,
      "▁체육": 10152,
      "▁의존": 10153,
      "▁차지했다.\n": 10154,
      "원한": 10155,
      "▁공화": 10156,
      "▁시가": 10157,
      "▁재판부는": 10158,
      "실한": 10159,
      "담을": 10160,
      "▁참여한": 10161,
      "어는": 10162,
      "구,": 10163,
      "놓은": 10164,
      "▁훈": 10165,
      "까요?\n": 10166,
      "▁앞둔": 10167,
      "▁이스라엘": 10168,
      "금의": 10169,
      "▁정상회담": 10170,
      "▁공무": 10171,
      "여성": 10172,
      "▁웅": 10173,
      "▁경기가": 10174,
      "▁숫": 10175,
      "▁채널": 10176,
      "▁가게": 10177,
      "▁인터뷰에서": 10178,
      "▁내에서": 10179,
      "▁유기": 10180,
      "▁뮤지컬": 10181,
      "▁대립": 10182,
      "▁갤럭시": 10183,
      "▁돈이": 10184,
      "▁어른": 10185,
      "폭력": 10186,
      "▁유형": 10187,
      "▁공을": 10188,
      "양을": 10189,
      "은행은": 10190,
      "▁어려워": 10191,
      "▁마음에": 10192,
      "▁빗": 10193,
      "▁인력": 10194,
      "▁심지어": 10195,
      "▁집에서": 10196,
      "화하는": 10197,
      "▁공공기관": 10198,
      "▁과도": 10199,
      "▁라디오": 10200,
      "▁단기": 10201,
      "백화점": 10202,
      "었다는": 10203,
      "이었다.": 10204,
      "▁202": 10205,
      "▁쏠": 10206,
      "고가": 10207,
      "▁붕": 10208,
      "▁1회": 10209,
      "문은": 10210,
      "▁농촌": 10211,
      "추진": 10212,
      "▁곽": 10213,
      "▁너무나": 10214,
      "최근": 10215,
      "▁서서": 10216,
      "▁동부": 10217,
      "▁생겨": 10218,
      "줘야": 10219,
      "여서": 10220,
      "▁모색": 10221,
      "▁깊이": 10222,
      "▁밴": 10223,
      "▁무릎": 10224,
      "자본": 10225,
      "▁왜냐": 10226,
      "▁베이징": 10227,
      "▁섞": 10228,
      "▁말로": 10229,
      "▁훼손": 10230,
      "▁통상": 10231,
      "지법": 10232,
      "성으로": 10233,
      "▁요구하는": 10234,
      "▁m": 10235,
      "▁이라는": 10236,
      "당에서": 10237,
      "▁결론": 10238,
      "▁터뜨": 10239,
      "▁진정": 10240,
      "실험": 10241,
      "▁당연히": 10242,
      "▁입증": 10243,
      "당에": 10244,
      "▁됩니다.\n": 10245,
      "해,": 10246,
      "신은": 10247,
      "▁정부와": 10248,
      "000만원": 10249,
      "▁드러나": 10250,
      "다\"\n": 10251,
      "트리": 10252,
      "자고": 10253,
      "네요.\n": 10254,
      "▁바라보": 10255,
      "소속": 10256,
      "르트": 10257,
      "▁통보": 10258,
      "▁무관": 10259,
      "▁b": 10260,
      "▁수시": 10261,
      "op": 10262,
      "▁달하는": 10263,
      "▁단순히": 10264,
      "청이": 10265,
      "▁로마": 10266,
      "시했다.\n": 10267,
      "▁소리가": 10268,
      "경이": 10269,
      "▁그날": 10270,
      "▁사이의": 10271,
      "▁환자": 10272,
      "▁접촉": 10273,
      "비의": 10274,
      "캠프": 10275,
      "▁상태에서": 10276,
      "번에": 10277,
      "▁가능성도": 10278,
      "▁젖": 10279,
      "▁순매": 10280,
      "▁수주": 10281,
      "에너지": 10282,
      "▁3개월": 10283,
      "일은": 10284,
      "▁그건": 10285,
      "▁부족한": 10286,
      "ation": 10287,
      "▁왼쪽": 10288,
      "▁다저": 10289,
      "▁맡아": 10290,
      "▁합리": 10291,
      "▁세금": 10292,
      "현은": 10293,
      "▁합동": 10294,
      "▁전공": 10295,
      "드의": 10296,
      "겠다": 10297,
      "▁멘": 10298,
      "▁당부했다.\n": 10299,
      "▁?\n": 10300,
      "▁역사를": 10301,
      "▁실행": 10302,
      "▁천안": 10303,
      "▁무게": 10304,
      "▁무엇을": 10305,
      "▁구간": 10306,
      "▁세월호": 10307,
      "감은": 10308,
      "라스": 10309,
      "▁그저": 10310,
      "하니": 10311,
      "회와": 10312,
      "▁올랐": 10313,
      "▁수준으로": 10314,
      "▁편안": 10315,
      "▁한정": 10316,
      "하다가": 10317,
      "▁화학": 10318,
      "▁본다.\n": 10319,
      "랫폼": 10320,
      "▁생각하고": 10321,
      "▁커뮤니티": 10322,
      "▁이라": 10323,
      "▁2002년": 10324,
      "방이": 10325,
      "▁꼼": 10326,
      "▁그러므로": 10327,
      "치료": 10328,
      "▁독특": 10329,
      "지요.\n": 10330,
      "▁맞은": 10331,
      "하려면": 10332,
      "혁신": 10333,
      "▁최초의": 10334,
      "▁찾은": 10335,
      "습니다.\"\n": 10336,
      "▁점은": 10337,
      "▁찌": 10338,
      "스탄": 10339,
      "▁물질": 10340,
      "미가": 10341,
      "▁맞이": 10342,
      "▁승부": 10343,
      "▁시스템을": 10344,
      "▁세계적인": 10345,
      "▁내내": 10346,
      "▁열린다.\n": 10347,
      "▁멀리": 10348,
      "급을": 10349,
      "아의": 10350,
      "▁사이에서": 10351,
      "www.": 10352,
      "▁상당한": 10353,
      "▁보지": 10354,
      "▁석유": 10355,
      "▁합류": 10356,
      "▁대상이": 10357,
      "▁본격적으로": 10358,
      "▁2루": 10359,
      "▁결의": 10360,
      "들이다.\n": 10361,
      "사항": 10362,
      "▁내지": 10363,
      "▁아이들이": 10364,
      "ED": 10365,
      "▁이어질": 10366,
      "웨이": 10367,
      "▁김용": 10368,
      "▁호주": 10369,
      "▁얻을": 10370,
      "연히": 10371,
      "▁인프라": 10372,
      "▁들어간": 10373,
      "이야": 10374,
      "소한": 10375,
      "▁31": 10376,
      "▁서울중앙": 10377,
      "시장의": 10378,
      "▁유일한": 10379,
      "물에": 10380,
      "조가": 10381,
      "▁목적으로": 10382,
      "▁정착": 10383,
      "▁방향으로": 10384,
      "▁빼앗": 10385,
      "▁10%": 10386,
      "라의": 10387,
      "▁점도": 10388,
      "▁업무를": 10389,
      "▁유동": 10390,
      "수원": 10391,
      "마켓": 10392,
      "▁담아": 10393,
      "▁아이를": 10394,
      "▁3만": 10395,
      "▁6개": 10396,
      "▁파트": 10397,
      "▁2시": 10398,
      "에게도": 10399,
      "되고,": 10400,
      "▁냈다.\n": 10401,
      "▁김대": 10402,
      "▁평가했다.\n": 10403,
      "▁보일": 10404,
      "이상": 10405,
      "▁거야": 10406,
      "▁물리": 10407,
      "▁대단": 10408,
      "건의": 10409,
      "요?\"\n": 10410,
      "▁하였": 10411,
      "식과": 10412,
      "▁빠진": 10413,
      "환을": 10414,
      "관과": 10415,
      "▁일에": 10416,
      "and": 10417,
      "댓글": 10418,
      "90": 10419,
      "▁가구": 10420,
      "▁택시": 10421,
      "▁뒤를": 10422,
      "▁좋아하는": 10423,
      "▁물었다.\n": 10424,
      "르지": 10425,
      "▁부분을": 10426,
      "려야": 10427,
      "▁깨끗": 10428,
      "지며": 10429,
      "▁구제": 10430,
      "▁55": 10431,
      "로서의": 10432,
      "▁연락": 10433,
      "▁잘못된": 10434,
      "▁이민": 10435,
      "▁동기": 10436,
      "▁시사": 10437,
      "해져": 10438,
      "액의": 10439,
      "▁이혼": 10440,
      "▁치료를": 10441,
      "▁그녀가": 10442,
      "▁마주": 10443,
      "싱턴": 10444,
      "▁도쿄": 10445,
      "▁밀어": 10446,
      "례를": 10447,
      "▁장학": 10448,
      "▁먹을": 10449,
      "클럽": 10450,
      "▁전세": 10451,
      "▁분야에서": 10452,
      "▁김현": 10453,
      "▁지원하는": 10454,
      "▁시상": 10455,
      "수산": 10456,
      "▁다행": 10457,
      "▁느꼈": 10458,
      "중공업": 10459,
      "▁유니": 10460,
      "▁일찍": 10461,
      "▁모임": 10462,
      "점,": 10463,
      "ur": 10464,
      "▁아니냐는": 10465,
      "레이드": 10466,
      "▁살인": 10467,
      "▁변호사": 10468,
      "▁예능": 10469,
      "▁회장의": 10470,
      "▁스페": 10471,
      "▁투자를": 10472,
      "까지도": 10473,
      "▁“지": 10474,
      "▁.\n": 10475,
      "▁of": 10476,
      "수요": 10477,
      "산의": 10478,
      "▁즐거": 10479,
      "▁사업에": 10480,
      "정,": 10481,
      "▁아닙": 10482,
      "▁이기": 10483,
      "▁관계가": 10484,
      "▁김연": 10485,
      "연한": 10486,
      "타운": 10487,
      "▁화려한": 10488,
      "▁넘게": 10489,
      "▁SNS": 10490,
      "▁설명이다.\n": 10491,
      "▁폐쇄": 10492,
      "as": 10493,
      "로의": 10494,
      "▁미치는": 10495,
      "▁나아": 10496,
      "▁즉시": 10497,
      "▁곳에서": 10498,
      "▁조절": 10499,
      "▁2000년": 10500,
      "▁광역": 10501,
      "▁맑": 10502,
      "▁인재": 10503,
      "▁한다.": 10504,
      "▁만날": 10505,
      "▁지니": 10506,
      "▁그렇죠.\n": 10507,
      "소리": 10508,
      "▁고등학교": 10509,
      "▁방법으로": 10510,
      "해주는": 10511,
      "▁원인": 10512,
      "다란": 10513,
      "▁요금": 10514,
      "▁무상": 10515,
      "▁즉각": 10516,
      "▁어떠한": 10517,
      "▁가계": 10518,
      "▁에스": 10519,
      "제,": 10520,
      "▁결과,": 10521,
      "소,": 10522,
      "▁30분": 10523,
      "시청": 10524,
      "비,": 10525,
      "▁나쁜": 10526,
      "음악": 10527,
      "▁답했다.\n": 10528,
      "대전": 10529,
      "▁7시": 10530,
      "▁코스닥": 10531,
      "주인": 10532,
      "▁일방": 10533,
      "▁신체": 10534,
      "▁주어": 10535,
      "▁폭력": 10536,
      "리면": 10537,
      "▁몸에": 10538,
      "호선": 10539,
      "▁시의": 10540,
      "▁밖으로": 10541,
      "▁미국과": 10542,
      "▁휴대폰": 10543,
      "▁사기": 10544,
      "▁닫": 10545,
      "▁객관": 10546,
      "▁튀": 10547,
      "▁부담이": 10548,
      "▁가난": 10549,
      "▁이~": 10550,
      "재정": 10551,
      "▁실종": 10552,
      "▁2012": 10553,
      "▁토지": 10554,
      "▁보관": 10555,
      "연은": 10556,
      "▁벼": 10557,
      "▁100%": 10558,
      "▁선수들이": 10559,
      "▁목표를": 10560,
      "▁참석해": 10561,
      "단과": 10562,
      "▁최강": 10563,
      "미술": 10564,
      "▁것이란": 10565,
      "격한": 10566,
      "▁구현": 10567,
      "▁하던": 10568,
      "▁고려해": 10569,
      "▁화재": 10570,
      "▁뒤로": 10571,
      "임금": 10572,
      "▁하나가": 10573,
      "▁대거": 10574,
      "▁세상에": 10575,
      "▁검은": 10576,
      "▁노사": 10577,
      "▁미니": 10578,
      "▁되기": 10579,
      "▁공략": 10580,
      "▁90": 10581,
      "▁실업": 10582,
      "수석": 10583,
      "▁않으": 10584,
      "▁배려": 10585,
      "▁옳": 10586,
      "바닥": 10587,
      "▁앤": 10588,
      "▁나섰": 10589,
      "▁거두": 10590,
      "스에서": 10591,
      "▁브리핑": 10592,
      "▁비교적": 10593,
      "▁부각": 10594,
      "기념": 10595,
      "ag": 10596,
      "▁개인의": 10597,
      "▁참여하는": 10598,
      "준비": 10599,
      "▁스위": 10600,
      "▁상품을": 10601,
      "우가": 10602,
      "▁한마디": 10603,
      "▁변화가": 10604,
      "▁회계": 10605,
      "진,": 10606,
      "▁진행된다.\n": 10607,
      "스런": 10608,
      "▁우승을": 10609,
      "▁미래를": 10610,
      "라,": 10611,
      "▁발생하는": 10612,
      "▁매력": 10613,
      "▁충청": 10614,
      "▁죽은": 10615,
      "▁통계": 10616,
      "▁옷을": 10617,
      "▁김기": 10618,
      "름이": 10619,
      "▁소환": 10620,
      "생명": 10621,
      "kg": 10622,
      "내며": 10623,
      "담당": 10624,
      "▁속으로": 10625,
      "▁나중에": 10626,
      "위,": 10627,
      "▁파이낸셜": 10628,
      "▁하나는": 10629,
      "▁마치고": 10630,
      "▁점유": 10631,
      "▁이대": 10632,
      "▁강의": 10633,
      "기금": 10634,
      "▁아프리카": 10635,
      "▁술을": 10636,
      "▁잇따라": 10637,
      "미는": 10638,
      "▁11시": 10639,
      "▁재배": 10640,
      "하라고": 10641,
      "▁중심의": 10642,
      "른다.\n": 10643,
      "▁\"우": 10644,
      "▁193": 10645,
      "▁없애": 10646,
      "▁지속적인": 10647,
      "▁끝까지": 10648,
      "니터": 10649,
      "▁흰": 10650,
      "~4": 10651,
      "심한": 10652,
      "된다는": 10653,
      "▁지금도": 10654,
      "로드": 10655,
      "고기": 10656,
      "촛불": 10657,
      "▁이미지를": 10658,
      "받았다.\n": 10659,
      "▁사내": 10660,
      "리면서": 10661,
      "▁성능": 10662,
      "▁기분": 10663,
      "방에": 10664,
      "▁전부": 10665,
      "일에": 10666,
      "500": 10667,
      "되자": 10668,
      "▁대결": 10669,
      "선언": 10670,
      "▁한층": 10671,
      "▁유입": 10672,
      "▁에이": 10673,
      "여명이": 10674,
      "im": 10675,
      "▁겪고": 10676,
      "▁현재의": 10677,
      "민이": 10678,
      "▁아이가": 10679,
      "었는데": 10680,
      "단으로": 10681,
      "속에": 10682,
      "▁닮": 10683,
      "▁아나": 10684,
      "▁응원": 10685,
      "▁나타났": 10686,
      "▁원정": 10687,
      "▁제약": 10688,
      "랫동안": 10689,
      "방의": 10690,
      "▁발전을": 10691,
      "▁수요가": 10692,
      "성한": 10693,
      "호,": 10694,
      "연의": 10695,
      "▁했다.": 10696,
      "▁부부": 10697,
      "▁활용해": 10698,
      "시한": 10699,
      "▁앞으로도": 10700,
      "▁수백": 10701,
      "로그": 10702,
      "▁미사일": 10703,
      "▁'201": 10704,
      "다보": 10705,
      "이와": 10706,
      "▁빙": 10707,
      "노총": 10708,
      "▁절차를": 10709,
      "▁토대로": 10710,
      "끼리": 10711,
      "▁시달": 10712,
      "▁내렸다.\n": 10713,
      "▁대책을": 10714,
      "상공": 10715,
      "대통령": 10716,
      "▁햇": 10717,
      "치에": 10718,
      "신청": 10719,
      "▁프로야구": 10720,
      "즈를": 10721,
      "▁42": 10722,
      "▁그러자": 10723,
      "▁제재": 10724,
      "ont": 10725,
      "▁\t\t": 10726,
      "▁덕분에": 10727,
      "▁가맹": 10728,
      "▁화제": 10729,
      "▁신임": 10730,
      "진과": 10731,
      "▁향한": 10732,
      "CC": 10733,
      "▁적응": 10734,
      "▁찾을": 10735,
      "해질": 10736,
      "▁다녀": 10737,
      "▁등이다.\n": 10738,
      "▁뚜렷": 10739,
      "▁팽": 10740,
      "▁치러": 10741,
      "▁여성의": 10742,
      "▁\"정": 10743,
      "▁근처": 10744,
      "▁출연해": 10745,
      "▁모른다.\n": 10746,
      "도에서": 10747,
      "▁부당": 10748,
      "▁운행": 10749,
      "평균": 10750,
      "하다\"고": 10751,
      "▁수영": 10752,
      "▁첨단": 10753,
      "▁전주": 10754,
      "▁39": 10755,
      "겠다.\n": 10756,
      "▁일각": 10757,
      "▁\"저": 10758,
      "이니": 10759,
      "▁변동": 10760,
      "▁얻은": 10761,
      "비와": 10762,
      "실은": 10763,
      "▁개성공단": 10764,
      "▁입법": 10765,
      "▁생각한다.\n": 10766,
      "▁클럽": 10767,
      "▁관찰": 10768,
      "설팅": 10769,
      "통을": 10770,
      "▁테마": 10771,
      "▁6시": 10772,
      "▁현상": 10773,
      "양의": 10774,
      "▁뚫": 10775,
      "▁추신": 10776,
      "▁협약": 10777,
      "▁냄새": 10778,
      "물은": 10779,
      "▁스피": 10780,
      "해졌다.\n": 10781,
      "▁2003년": 10782,
      "▁에어": 10783,
      "▁클라": 10784,
      "해졌": 10785,
      "▁흔히": 10786,
      "▁전후": 10787,
      "▁김동": 10788,
      "종을": 10789,
      "PC": 10790,
      "가.\n": 10791,
      "▁한강": 10792,
      "▁것,": 10793,
      "▁휩": 10794,
      "sp": 10795,
      "▁저항": 10796,
      "대화": 10797,
      "연대": 10798,
      "마자": 10799,
      "효과": 10800,
      "▁\"당": 10801,
      "▁증가한": 10802,
      "▁신분": 10803,
      "▁거예요.\n": 10804,
      "▁환율": 10805,
      "▁내달": 10806,
      "▁농협": 10807,
      "▁클래": 10808,
      "▁임원": 10809,
      "▁마시": 10810,
      "▁낯": 10811,
      "▁청문": 10812,
      "▁바람에": 10813,
      "▁이슬": 10814,
      "▁43": 10815,
      "▁중학교": 10816,
      "어.\n": 10817,
      "▁차를": 10818,
      "▁지적이": 10819,
      "▁드러냈다.\n": 10820,
      "▁지출": 10821,
      "▁기대를": 10822,
      "것도": 10823,
      "▁항의": 10824,
      "하신": 10825,
      "색을": 10826,
      "▁비중이": 10827,
      "스플레이": 10828,
      "▁직전": 10829,
      "▁자연스럽게": 10830,
      "▁기쁨": 10831,
      "▁상업": 10832,
      "▁영양": 10833,
      "us": 10834,
      "절을": 10835,
      "치며": 10836,
      "▁행동을": 10837,
      "▁명령": 10838,
      "▁규모가": 10839,
      "▁감시": 10840,
      "개국": 10841,
      "비에": 10842,
      "▁라며": 10843,
      "▁뒤집": 10844,
      "비로": 10845,
      "죠?\n": 10846,
      "▁한때": 10847,
      "▁중요하다.\n": 10848,
      "▁경쟁력을": 10849,
      "▁48": 10850,
      "래도": 10851,
      "▁엠": 10852,
      "등학생": 10853,
      "▁출석": 10854,
      "▁않았던": 10855,
      "▁즉,": 10856,
      "▁경쟁력": 10857,
      "▁몸이": 10858,
      "보증": 10859,
      "▁제정": 10860,
      "▁차지하는": 10861,
      "▁오랫동안": 10862,
      "▁조사됐다.\n": 10863,
      "미터": 10864,
      "▁도심": 10865,
      "서로": 10866,
      "황을": 10867,
      "위원회가": 10868,
      "▁앙": 10869,
      "▁이익을": 10870,
      "▁입찰": 10871,
      "위와": 10872,
      "개선": 10873,
      "▁백화점": 10874,
      "유럽": 10875,
      "전으로": 10876,
      "▁반박": 10877,
      "▁앞세": 10878,
      "능력": 10879,
      "인권": 10880,
      "이어서": 10881,
      "▁행복한": 10882,
      "▁말았다.\n": 10883,
      "대체": 10884,
      "▁65": 10885,
      "▁눈물을": 10886,
      "▁일어난": 10887,
      "▁우수한": 10888,
      "▁변신": 10889,
      "▁철도": 10890,
      "개가": 10891,
      "물질": 10892,
      "사이": 10893,
      "▁문자": 10894,
      "▁금감": 10895,
      "▁2017년": 10896,
      "겠다\"고": 10897,
      "▁경우에": 10898,
      "▁펜": 10899,
      "▁좋을": 10900,
      "▁유권": 10901,
      "나,": 10902,
      "▁축제": 10903,
      "▁따뜻한": 10904,
      "크를": 10905,
      "▁포인트": 10906,
      "▁윈": 10907,
      "올해": 10908,
      "주와": 10909,
      "▁단순한": 10910,
      "▁연봉": 10911,
      "▁사람에게": 10912,
      "▁가시": 10913,
      "▁차기": 10914,
      "렸던": 10915,
      "▁공연을": 10916,
      "친다.\n": 10917,
      "▁세대": 10918,
      "개로": 10919,
      "구요.\n": 10920,
      "▁보급": 10921,
      "하지는": 10922,
      "▁\"한": 10923,
      "▁이천": 10924,
      "억원에": 10925,
      "▁명품": 10926,
      "▁후속": 10927,
      ">\n": 10928,
      "▁증시": 10929,
      "▁역사적": 10930,
      "스키": 10931,
      "▁경험이": 10932,
      "▁주장을": 10933,
      "▁'그": 10934,
      "▁아베": 10935,
      "▁있으나": 10936,
      "▁느낀": 10937,
      "▁공산": 10938,
      "▁교환": 10939,
      "▁테이": 10940,
      "▁뼈": 10941,
      "▁이미지": 10942,
      "철도": 10943,
      "함과": 10944,
      "▁탓에": 10945,
      "전과": 10946,
      "쪽에": 10947,
      "▁사고가": 10948,
      "▁이번에는": 10949,
      "▁말도": 10950,
      "▁44": 10951,
      "낸다.\n": 10952,
      "장한": 10953,
      "▁소식": 10954,
      "공을": 10955,
      "▁것이라": 10956,
      "▁되돌": 10957,
      "▁사유": 10958,
      "밀한": 10959,
      "체에": 10960,
      "▁아웃": 10961,
      "▁결과에": 10962,
      "였다.": 10963,
      "▁수집": 10964,
      "▁'나": 10965,
[...]
